__attribute__((section("network_model_sec"), aligned(16))) char model_pte[] = {
0x24, 0x00, 0x00, 0x00, 0x45, 0x54, 0x31, 0x32, 0x00, 0x00, 0x00, 0x00, 0x00, 0x00, 0x00, 0x00, 0x00, 0x00, 0x00, 0x00, 0x10, 0x00, 0x18, 0x00, 0x00, 0x00, 0x04, 0x00, 0x08, 0x00, 0x0c, 0x00, 
0x10, 0x00, 0x14, 0x00, 0x10, 0x00, 0x00, 0x00, 0xbc, 0x21, 0x00, 0x00, 0xb4, 0x21, 0x00, 0x00, 0x2c, 0x00, 0x00, 0x00, 0x1c, 0x00, 0x00, 0x00, 0x04, 0x00, 0x00, 0x00, 0xdc, 0xda, 0xff, 0xff, 
0x04, 0x00, 0x00, 0x00, 0x01, 0x00, 0x00, 0x00, 0x00, 0x00, 0x00, 0x00, 0x00, 0x00, 0x00, 0x00, 0x01, 0x00, 0x00, 0x00, 0x04, 0x00, 0x00, 0x00, 0x60, 0xda, 0xff, 0xff, 0x01, 0x00, 0x00, 0x00, 
0x04, 0x00, 0x00, 0x00, 0x4a, 0xd8, 0xff, 0xff, 0x04, 0x00, 0x00, 0x00, 0x70, 0x21, 0x00, 0x00, 0x76, 0x65, 0x6c, 0x61, 0x5f, 0x62, 0x69, 0x6e, 0x5f, 0x73, 0x74, 0x72, 0x65, 0x61, 0x6d, 0x00, 
0x00, 0x00, 0x00, 0x00, 0x00, 0x00, 0x00, 0x00, 0x00, 0x00, 0x00, 0x00, 0x00, 0x00, 0x00, 0x00, 0x63, 0x6d, 0x64, 0x5f, 0x64, 0x61, 0x74, 0x61, 0x00, 0x00, 0x00, 0x00, 0x00, 0x00, 0x00, 0x00, 
0x28, 0x03, 0x00, 0x00, 0x00, 0x00, 0x00, 0x00, 0x00, 0x00, 0x00, 0x00, 0x00, 0x00, 0x00, 0x00, 0x43, 0x4f, 0x50, 0x31, 0x01, 0x00, 0x10, 0x00, 0x07, 0x18, 0x00, 0x00, 0x01, 0x60, 0x06, 0x10, 
0x05, 0x00, 0x00, 0x00, 0x05, 0x00, 0x00, 0x00, 0x05, 0x00, 0x00, 0x00, 0x02, 0x00, 0xc2, 0x00, 0x30, 0x01, 0x00, 0x00, 0x30, 0x40, 0x00, 0x00, 0x00, 0x00, 0x00, 0x00, 0x31, 0x01, 0x01, 0x00, 
0x31, 0x40, 0x00, 0x00, 0xc0, 0x08, 0x00, 0x00, 0x32, 0x40, 0x00, 0x00, 0x70, 0x01, 0x00, 0x00, 0x10, 0x00, 0x00, 0x00, 0x0f, 0x01, 0x01, 0x00, 0x00, 0x40, 0x00, 0x00, 0x30, 0x0e, 0x00, 0x00, 
0x01, 0x40, 0x00, 0x00, 0x00, 0x00, 0x00, 0x00, 0x02, 0x40, 0x00, 0x00, 0x00, 0x00, 0x00, 0x00, 0x03, 0x40, 0x00, 0x00, 0x00, 0x00, 0x00, 0x00, 0x0b, 0x01, 0x00, 0x00, 0x0c, 0x01, 0x00, 0x00, 
0x0a, 0x01, 0x00, 0x00, 0x04, 0x01, 0x07, 0x00, 0x05, 0x40, 0x00, 0x00, 0x08, 0x00, 0x00, 0x00, 0x04, 0x40, 0x00, 0x00, 0x08, 0x00, 0x00, 0x00, 0x06, 0x40, 0x00, 0x00, 0x01, 0x00, 0x00, 0x00, 
0x09, 0x01, 0x11, 0x00, 0x05, 0x01, 0x01, 0x00, 0x07, 0x01, 0x00, 0x00, 0x00, 0x01, 0x00, 0x00, 0x01, 0x01, 0x00, 0x00, 0x03, 0x01, 0x00, 0x00, 0x02, 0x01, 0x00, 0x00, 0x1f, 0x01, 0x01, 0x00, 
0x10, 0x40, 0x00, 0x00, 0x00, 0x00, 0x00, 0x00, 0x11, 0x40, 0x00, 0x00, 0x00, 0x00, 0x00, 0x00, 0x12, 0x40, 0x00, 0x00, 0x00, 0x00, 0x00, 0x00, 0x13, 0x40, 0x00, 0x00, 0x00, 0x00, 0x00, 0x00, 
0x12, 0x01, 0x00, 0x00, 0x11, 0x01, 0x00, 0x00, 0x1b, 0x01, 0x00, 0x00, 0x1c, 0x01, 0x00, 0x00, 0x1a, 0x01, 0x00, 0x00, 0x13, 0x01, 0x0f, 0x00, 0x15, 0x40, 0x00, 0x00, 0x40, 0x00, 0x00, 0x00, 
0x14, 0x40, 0x00, 0x00, 0x10, 0x00, 0x00, 0x00, 0x16, 0x40, 0x00, 0x00, 0x10, 0x00, 0x00, 0x00, 0x18, 0x01, 0x80, 0xff, 0x14, 0x01, 0x41, 0x80, 0x21, 0x01, 0x00, 0x00, 0x20, 0x01, 0x00, 0x00, 
0x22, 0x01, 0x04, 0x00, 0x28, 0x01, 0x01, 0x00, 0x20, 0x40, 0x00, 0x00, 0x60, 0x09, 0x00, 0x00, 0x21, 0x40, 0x00, 0x00, 0xd0, 0x00, 0x00, 0x00, 0x29, 0x01, 0x01, 0x00, 0x22, 0x40, 0x00, 0x00, 
0xc0, 0x08, 0x00, 0x00, 0x23, 0x40, 0x00, 0x00, 0xa0, 0x00, 0x00, 0x00, 0x25, 0x01, 0x00, 0x00, 0x26, 0x01, 0x80, 0xff, 0x27, 0x01, 0x7f, 0x00, 0x16, 0x01, 0x00, 0x00, 0x15, 0x01, 0x01, 0x00, 
0x17, 0x01, 0x3f, 0x00, 0x0d, 0x01, 0x06, 0x00, 0x2d, 0x01, 0x0e, 0x00, 0x24, 0x01, 0x00, 0x00, 0x2f, 0x01, 0x00, 0x00, 0x11, 0x00, 0x00, 0x00, 0x02, 0x00, 0x00, 0x00, 0x30, 0x40, 0x00, 0x00, 
0x70, 0x01, 0x00, 0x00, 0x31, 0x40, 0x00, 0x00, 0x30, 0x0a, 0x00, 0x00, 0x32, 0x40, 0x00, 0x00, 0x00, 0x04, 0x00, 0x00, 0x10, 0x00, 0x00, 0x00, 0x10, 0x40, 0x00, 0x00, 0x10, 0x00, 0x00, 0x00, 
0x13, 0x01, 0x2f, 0x00, 0x20, 0x40, 0x00, 0x00, 0x10, 0x0c, 0x00, 0x00, 0x21, 0x40, 0x00, 0x00, 0x20, 0x02, 0x00, 0x00, 0x22, 0x40, 0x00, 0x00, 0x30, 0x0a, 0x00, 0x00, 0x23, 0x40, 0x00, 0x00, 
0xe0, 0x01, 0x00, 0x00, 0x2f, 0x01, 0x03, 0x00, 0x11, 0x00, 0x00, 0x00, 0x02, 0x00, 0x00, 0x00, 0x30, 0x40, 0x00, 0x00, 0x70, 0x05, 0x00, 0x00, 0x31, 0x40, 0x00, 0x00, 0x40, 0x00, 0x00, 0x00, 
0x32, 0x40, 0x00, 0x00, 0x50, 0x04, 0x00, 0x00, 0x10, 0x00, 0x00, 0x00, 0x00, 0x40, 0x00, 0x00, 0x00, 0x00, 0x00, 0x00, 0x04, 0x01, 0x3f, 0x00, 0x05, 0x40, 0x00, 0x00, 0x40, 0x00, 0x00, 0x00, 
0x04, 0x40, 0x00, 0x00, 0x10, 0x00, 0x00, 0x00, 0x06, 0x40, 0x00, 0x00, 0x10, 0x00, 0x00, 0x00, 0x09, 0x01, 0x80, 0xff, 0x05, 0x01, 0x41, 0x00, 0x10, 0x40, 0x00, 0x00, 0xc0, 0x08, 0x00, 0x00, 
0x13, 0x01, 0x0f, 0x00, 0x15, 0x40, 0x00, 0x00, 0x20, 0x00, 0x00, 0x00, 0x22, 0x01, 0x00, 0x00, 0x20, 0x40, 0x00, 0x00, 0xe0, 0x00, 0x00, 0x00, 0x21, 0x40, 0x00, 0x00, 0xb0, 0x03, 0x00, 0x00, 
0x22, 0x40, 0x00, 0x00, 0x40, 0x00, 0x00, 0x00, 0x23, 0x40, 0x00, 0x00, 0xa0, 0x00, 0x00, 0x00, 0x17, 0x01, 0x1f, 0x00, 0x2f, 0x01, 0x00, 0x00, 0x11, 0x00, 0x00, 0x00, 0x02, 0x00, 0x00, 0x00, 
0x30, 0x40, 0x00, 0x00, 0xc0, 0x09, 0x00, 0x00, 0x31, 0x40, 0x00, 0x00, 0x90, 0x04, 0x00, 0x00, 0x32, 0x40, 0x00, 0x00, 0x30, 0x04, 0x00, 0x00, 0x10, 0x00, 0x00, 0x00, 0x10, 0x40, 0x00, 0x00, 
0xd0, 0x08, 0x00, 0x00, 0x20, 0x40, 0x00, 0x00, 0x30, 0x05, 0x00, 0x00, 0x21, 0x40, 0x00, 0x00, 0x90, 0x03, 0x00, 0x00, 0x22, 0x40, 0x00, 0x00, 0x90, 0x04, 0x00, 0x00, 0x2f, 0x01, 0x03, 0x00, 
0x11, 0x00, 0x00, 0x00, 0x02, 0x00, 0x00, 0x00, 0x30, 0x40, 0x00, 0x00, 0xf0, 0x0d, 0x00, 0x00, 0x31, 0x40, 0x00, 0x00, 0xe0, 0x08, 0x00, 0x00, 0x32, 0x40, 0x00, 0x00, 0xf0, 0x00, 0x00, 0x00, 
0x10, 0x00, 0x00, 0x00, 0x00, 0x40, 0x00, 0x00, 0xc0, 0x08, 0x00, 0x00, 0x04, 0x01, 0x1f, 0x00, 0x05, 0x40, 0x00, 0x00, 0x20, 0x00, 0x00, 0x00, 0x10, 0x40, 0x00, 0x00, 0x00, 0x00, 0x00, 0x00, 
0x13, 0x01, 0x03, 0x00, 0x15, 0x40, 0x00, 0x00, 0x04, 0x00, 0x00, 0x00, 0x14, 0x40, 0x00, 0x00, 0x04, 0x00, 0x00, 0x00, 0x16, 0x40, 0x00, 0x00, 0x01, 0x00, 0x00, 0x00, 0x18, 0x01, 0xd6, 0xff, 
0x14, 0x01, 0x01, 0x80, 0x20, 0x40, 0x00, 0x00, 0x10, 0x09, 0x00, 0x00, 0x21, 0x40, 0x00, 0x00, 0xc0, 0x00, 0x00, 0x00, 0x22, 0x40, 0x00, 0x00, 0xe0, 0x08, 0x00, 0x00, 0x23, 0x40, 0x00, 0x00, 
0x30, 0x00, 0x00, 0x00, 0x17, 0x01, 0x07, 0x00, 0x2f, 0x01, 0x00, 0x00, 0x11, 0x00, 0x00, 0x00, 0x02, 0x00, 0x00, 0x00, 0x00, 0x00, 0xff, 0xff, 0x00, 0x00, 0x00, 0x00, 0x00, 0x00, 0x00, 0x00, 
0x77, 0x65, 0x69, 0x67, 0x68, 0x74, 0x5f, 0x64, 0x61, 0x74, 0x61, 0x00, 0x00, 0x00, 0x00, 0x00, 0xe0, 0x0e, 0x00, 0x00, 0x00, 0x00, 0x00, 0x00, 0x00, 0x00, 0x00, 0x00, 0x00, 0x00, 0x00, 0x00, 
0x04, 0x0f, 0x00, 0x00, 0x00, 0x94, 0x73, 0x1a, 0x7e, 0x25, 0x3c, 0xf9, 0xff, 0xff, 0xff, 0x94, 0x73, 0x1a, 0x7e, 0x25, 0x15, 0xf4, 0xff, 0xff, 0xff, 0x94, 0x73, 0x1a, 0x7e, 0x25, 0x48, 0x02, 
0x00, 0x00, 0x00, 0x94, 0x73, 0x1a, 0x7e, 0x25, 0x99, 0x04, 0x00, 0x00, 0x00, 0x94, 0x73, 0x1a, 0x7e, 0x25, 0xa9, 0xf9, 0xff, 0xff, 0xff, 0x94, 0x73, 0x1a, 0x7e, 0x25, 0xe5, 0x0b, 0x00, 0x00, 
0x00, 0x94, 0x73, 0x1a, 0x7e, 0x25, 0x49, 0x09, 0x00, 0x00, 0x00, 0x94, 0x73, 0x1a, 0x7e, 0x25, 0xeb, 0x16, 0x00, 0x00, 0x00, 0x94, 0x73, 0x1a, 0x7e, 0x25, 0xd7, 0xff, 0xff, 0xff, 0xff, 0x94, 
0x73, 0x1a, 0x7e, 0x25, 0x0c, 0xfd, 0xff, 0xff, 0xff, 0x94, 0x73, 0x1a, 0x7e, 0x25, 0xe8, 0xf0, 0xff, 0xff, 0xff, 0x94, 0x73, 0x1a, 0x7e, 0x25, 0x7b, 0x07, 0x00, 0x00, 0x00, 0x94, 0x73, 0x1a, 
0x7e, 0x25, 0x05, 0xf5, 0xff, 0xff, 0xff, 0x94, 0x73, 0x1a, 0x7e, 0x25, 0x54, 0xf1, 0xff, 0xff, 0xff, 0x94, 0x73, 0x1a, 0x7e, 0x25, 0x25, 0xfb, 0xff, 0xff, 0xff, 0x94, 0x73, 0x1a, 0x7e, 0x25, 
0xd0, 0x03, 0x54, 0xf1, 0x5d, 0x51, 0x30, 0x20, 0x20, 0xb3, 0xa0, 0x70, 0x53, 0xb2, 0x91, 0x01, 0xd1, 0x90, 0x40, 0x10, 0x38, 0xe7, 0xa4, 0x94, 0xe4, 0xd3, 0xa3, 0x12, 0x02, 0xc2, 0x71, 0x31, 
0x21, 0x61, 0x2d, 0xb9, 0x38, 0x12, 0x00, 0xe0, 0x38, 0x30, 0x22, 0xaf, 0xb4, 0x7a, 0x95, 0x17, 0x63, 0x00, 0xf0, 0xb8, 0x32, 0x04, 0x97, 0x32, 0xdc, 0x62, 0x04, 0x01, 0x08, 0xf9, 0xc9, 0x0b, 
0x04, 0x37, 0x01, 0x01, 0xc0, 0x61, 0x6d, 0x4b, 0x05, 0x2d, 0x6c, 0x9e, 0x60, 0x21, 0x80, 0x11, 0x84, 0x02, 0xe0, 0x4d, 0x1c, 0xa9, 0xc2, 0xe0, 0xbf, 0xc7, 0xa9, 0x5a, 0x1a, 0x44, 0x8d, 0x03, 
0xe4, 0xff, 0xbf, 0xd7, 0x2a, 0x23, 0x48, 0x08, 0xff, 0xcf, 0x5a, 0x08, 0x9b, 0x3f, 0xa8, 0xfe, 0xff, 0xff, 0xff, 0xff, 0xff, 0xff, 0xff, 0xff, 0xff, 0xff, 0xff, 0xff, 0xff, 0xff, 0xff, 0xff, 
0xff, 0xff, 0xff, 0x01, 0xc0, 0x04, 0x80, 0xce, 0xb4, 0x00, 0xd0, 0x0b, 0x02, 0x62, 0x5d, 0xe0, 0x67, 0x69, 0xa8, 0x81, 0x9c, 0x34, 0x45, 0x20, 0x00, 0x3b, 0xb5, 0x38, 0x8f, 0xe0, 0xba, 0x8c, 
0xd1, 0x60, 0x80, 0x00, 0x1f, 0x0c, 0x7a, 0xd6, 0xdb, 0xb8, 0x03, 0x00, 0x78, 0x81, 0x37, 0x1a, 0xc3, 0x36, 0xd0, 0xf4, 0xff, 0xbd, 0x88, 0xff, 0xff, 0xff, 0xff, 0xff, 0xff, 0xff, 0xff, 0xff, 
0xff, 0xff, 0xff, 0xff, 0xff, 0xff, 0xff, 0xff, 0xff, 0xff, 0xff, 0xff, 0x7f, 0xf8, 0xff, 0xff, 0xd4, 0x01, 0x00, 0x00, 0x00, 0x94, 0x73, 0x1a, 0x7e, 0x25, 0x87, 0xf2, 0xff, 0xff, 0xff, 0x94, 
0x73, 0x1a, 0x7e, 0x25, 0xdd, 0xfc, 0xff, 0xff, 0xff, 0x94, 0x73, 0x1a, 0x7e, 0x25, 0x29, 0xf8, 0xff, 0xff, 0xff, 0x94, 0x73, 0x1a, 0x7e, 0x25, 0x5b, 0x0b, 0x00, 0x00, 0x00, 0x94, 0x73, 0x1a, 
0x7e, 0x25, 0x13, 0xfb, 0xff, 0xff, 0xff, 0x94, 0x73, 0x1a, 0x7e, 0x25, 0x8a, 0xf9, 0xff, 0xff, 0xff, 0x94, 0x73, 0x1a, 0x7e, 0x25, 0x1c, 0x17, 0x00, 0x00, 0x00, 0x94, 0x73, 0x1a, 0x7e, 0x25, 
0x8c, 0xee, 0xff, 0xff, 0xff, 0x94, 0x73, 0x1a, 0x7e, 0x25, 0x91, 0xf7, 0xff, 0xff, 0xff, 0x94, 0x73, 0x1a, 0x7e, 0x25, 0xe7, 0xf9, 0xff, 0xff, 0xff, 0x94, 0x73, 0x1a, 0x7e, 0x25, 0x8a, 0xec, 
0xff, 0xff, 0xff, 0x94, 0x73, 0x1a, 0x7e, 0x25, 0x65, 0x14, 0x00, 0x00, 0x00, 0x94, 0x73, 0x1a, 0x7e, 0x25, 0x11, 0x0a, 0x00, 0x00, 0x00, 0x94, 0x73, 0x1a, 0x7e, 0x25, 0xf0, 0xfc, 0xff, 0xff, 
0xff, 0x94, 0x73, 0x1a, 0x7e, 0x25, 0xe9, 0x04, 0x00, 0x00, 0x00, 0x94, 0x73, 0x1a, 0x7e, 0x25, 0xba, 0xf3, 0xff, 0xff, 0xff, 0x94, 0x73, 0x1a, 0x7e, 0x25, 0x7b, 0xf6, 0xff, 0xff, 0xff, 0x94, 
0x73, 0x1a, 0x7e, 0x25, 0x3c, 0xf3, 0xff, 0xff, 0xff, 0x94, 0x73, 0x1a, 0x7e, 0x25, 0x46, 0xf1, 0xff, 0xff, 0xff, 0x94, 0x73, 0x1a, 0x7e, 0x25, 0xda, 0x02, 0x00, 0x00, 0x00, 0x94, 0x73, 0x1a, 
0x7e, 0x25, 0xed, 0x0a, 0x00, 0x00, 0x00, 0x94, 0x73, 0x1a, 0x7e, 0x25, 0x07, 0xf6, 0xff, 0xff, 0xff, 0x94, 0x73, 0x1a, 0x7e, 0x25, 0xcd, 0xfb, 0xff, 0xff, 0xff, 0x94, 0x73, 0x1a, 0x7e, 0x25, 
0xc6, 0x0b, 0x00, 0x00, 0x00, 0x94, 0x73, 0x1a, 0x7e, 0x25, 0x07, 0x0e, 0x00, 0x00, 0x00, 0x94, 0x73, 0x1a, 0x7e, 0x25, 0xa0, 0x00, 0x00, 0x00, 0x00, 0x94, 0x73, 0x1a, 0x7e, 0x25, 0xf6, 0xec, 
0xff, 0xff, 0xff, 0x94, 0x73, 0x1a, 0x7e, 0x25, 0x7f, 0xf4, 0xff, 0xff, 0xff, 0x94, 0x73, 0x1a, 0x7e, 0x25, 0x5b, 0xeb, 0xff, 0xff, 0xff, 0x94, 0x73, 0x1a, 0x7e, 0x25, 0x59, 0xf8, 0xff, 0xff, 
0xff, 0x94, 0x73, 0x1a, 0x7e, 0x25, 0x56, 0x04, 0x00, 0x00, 0x00, 0x94, 0x73, 0x1a, 0x7e, 0x25, 0x01, 0x0e, 0x00, 0x00, 0x00, 0x94, 0x73, 0x1a, 0x7e, 0x25, 0x24, 0x0c, 0x00, 0x00, 0x00, 0x94, 
0x73, 0x1a, 0x7e, 0x25, 0x32, 0x16, 0x00, 0x00, 0x00, 0x94, 0x73, 0x1a, 0x7e, 0x25, 0xe5, 0x0d, 0x00, 0x00, 0x00, 0x94, 0x73, 0x1a, 0x7e, 0x25, 0x1f, 0x0c, 0x00, 0x00, 0x00, 0x94, 0x73, 0x1a, 
0x7e, 0x25, 0x9e, 0x0a, 0x00, 0x00, 0x00, 0x94, 0x73, 0x1a, 0x7e, 0x25, 0xd9, 0xf9, 0xff, 0xff, 0xff, 0x94, 0x73, 0x1a, 0x7e, 0x25, 0xc1, 0xe8, 0xff, 0xff, 0xff, 0x94, 0x73, 0x1a, 0x7e, 0x25, 
0x53, 0xef, 0xff, 0xff, 0xff, 0x94, 0x73, 0x1a, 0x7e, 0x25, 0xcb, 0x02, 0x00, 0x00, 0x00, 0x94, 0x73, 0x1a, 0x7e, 0x25, 0x6e, 0x0d, 0x00, 0x00, 0x00, 0x94, 0x73, 0x1a, 0x7e, 0x25, 0xc7, 0xea, 
0xff, 0xff, 0xff, 0x94, 0x73, 0x1a, 0x7e, 0x25, 0xa6, 0xfd, 0xff, 0xff, 0xff, 0x94, 0x73, 0x1a, 0x7e, 0x25, 0x3b, 0x05, 0x00, 0x00, 0x00, 0x94, 0x73, 0x1a, 0x7e, 0x25, 0x92, 0xf3, 0xff, 0xff, 
0xff, 0x94, 0x73, 0x1a, 0x7e, 0x25, 0x3a, 0xf4, 0xff, 0xff, 0xff, 0x94, 0x73, 0x1a, 0x7e, 0x25, 0x99, 0x0b, 0x54, 0xf1, 0x2b, 0x28, 0x0c, 0x12, 0x0a, 0x03, 0x82, 0xd0, 0x71, 0x34, 0x18, 0x8b, 
0x83, 0x26, 0xb2, 0x09, 0xba, 0x2c, 0xa6, 0x90, 0x67, 0x02, 0xc9, 0x9d, 0x32, 0x97, 0xca, 0x23, 0x8c, 0xcb, 0x00, 0xf0, 0x89, 0x87, 0x3f, 0xef, 0x7d, 0x3b, 0x34, 0x00, 0x60, 0x16, 0x00, 0x54, 
0x21, 0x93, 0x4a, 0xb6, 0x14, 0xd3, 0x01, 0x80, 0x4f, 0xd4, 0x93, 0xef, 0xe8, 0xcf, 0x00, 0x00, 0x70, 0x1c, 0x7d, 0x10, 0x95, 0x7c, 0x00, 0x40, 0xd8, 0x00, 0xf0, 0x48, 0xa3, 0x62, 0xb3, 0xc3, 
0x40, 0x3c, 0x01, 0xc0, 0x9f, 0x5b, 0x46, 0xd8, 0xdc, 0x03, 0x04, 0x06, 0x56, 0xe1, 0x8d, 0x4e, 0x10, 0x20, 0x04, 0x31, 0xff, 0xdf, 0x70, 0xa2, 0xa9, 0x05, 0x92, 0x84, 0xff, 0x3f, 0x7e, 0x70, 
0xb7, 0xa9, 0x35, 0xf8, 0xff, 0xff, 0xff, 0xff, 0xff, 0xff, 0xff, 0xff, 0x1f, 0x00, 0x0b, 0x06, 0x80, 0x0f, 0x48, 0x1c, 0x9c, 0xee, 0x2a, 0x07, 0x40, 0x21, 0x10, 0x3c, 0x00, 0x60, 0xf5, 0x9c, 
0x13, 0x63, 0x65, 0x20, 0x70, 0x00, 0xc0, 0x82, 0x98, 0x0d, 0xfc, 0x05, 0x35, 0x00, 0xc0, 0x03, 0x00, 0x34, 0xf6, 0x43, 0x94, 0x91, 0x41, 0x49, 0x00, 0xa0, 0x05, 0x6b, 0xca, 0x26, 0x73, 0x9d, 
0x60, 0x01, 0xc0, 0x03, 0xf0, 0xff, 0x37, 0x95, 0xcb, 0xf4, 0x34, 0xc6, 0xff, 0x13, 0x45, 0xa6, 0x08, 0xcf, 0xe3, 0xff, 0xff, 0xff, 0xff, 0xff, 0xff, 0xff, 0xff, 0xff, 0x00, 0x98, 0x17, 0x00, 
0xae, 0x00, 0x12, 0x4f, 0xa3, 0xea, 0x89, 0xeb, 0x22, 0x00, 0x78, 0x08, 0x00, 0xfc, 0x84, 0x2e, 0xac, 0x4d, 0x27, 0xe2, 0x9d, 0x00, 0xe0, 0x4d, 0x86, 0x73, 0x21, 0x46, 0x00, 0x00, 0x83, 0x0d, 
0x1c, 0xa1, 0x33, 0x00, 0xb0, 0x41, 0x00, 0x28, 0x4f, 0x75, 0x63, 0x27, 0x61, 0x86, 0x1f, 0x18, 0xe0, 0xef, 0xb8, 0x29, 0xf8, 0xc7, 0x6a, 0xa0, 0x01, 0x20, 0x42, 0xff, 0xff, 0xf7, 0x68, 0x88, 
0x4e, 0x29, 0x00, 0xff, 0x1f, 0x9c, 0xdc, 0x62, 0xc0, 0xf9, 0xff, 0xff, 0xff, 0xff, 0xff, 0xff, 0xff, 0x7f, 0x30, 0x38, 0x00, 0xd0, 0x00, 0x07, 0x00, 0xc0, 0x2e, 0x6c, 0x88, 0xf8, 0x79, 0x22, 
0x01, 0xd4, 0x23, 0x00, 0xf8, 0x17, 0x88, 0xe6, 0xbc, 0x50, 0xc9, 0x02, 0x88, 0x61, 0xbc, 0x9e, 0x43, 0x94, 0x1c, 0x40, 0xdc, 0x09, 0x00, 0xa8, 0x87, 0x00, 0xac, 0x83, 0x41, 0xd8, 0x01, 0xe0, 
0x1b, 0x17, 0xca, 0xc8, 0x82, 0x2c, 0x00, 0xe0, 0xc7, 0xff, 0x77, 0x68, 0xaa, 0xfa, 0x12, 0x34, 0x18, 0xe0, 0xff, 0x85, 0x30, 0xa9, 0x9e, 0x00, 0xfe, 0xff, 0xff, 0xff, 0xff, 0xff, 0xff, 0xff, 
0x1f, 0xb8, 0x06, 0x00, 0x3a, 0xd0, 0x43, 0x00, 0xd8, 0x85, 0x9a, 0x5e, 0xf3, 0x17, 0x00, 0xd0, 0xad, 0xfe, 0x47, 0xce, 0x50, 0x0e, 0x03, 0x10, 0x23, 0x00, 0x80, 0xd5, 0x15, 0xa9, 0x9f, 0xed, 
0x4f, 0x06, 0x65, 0x81, 0x48, 0x91, 0x52, 0x00, 0x00, 0xec, 0x00, 0xe0, 0x59, 0x00, 0x08, 0x83, 0x12, 0x0c, 0xe0, 0x6f, 0x4a, 0x42, 0xae, 0x51, 0x40, 0x00, 0x31, 0xf9, 0xff, 0x36, 0x82, 0x8c, 
0x7d, 0x88, 0x01, 0xc0, 0xff, 0x5f, 0xc3, 0xc0, 0x0a, 0x56, 0xe4, 0xff, 0xff, 0xff, 0xff, 0xff, 0xff, 0xff, 0xff, 0x0f, 0x6b, 0x01, 0x00, 0x17, 0x38, 0x00, 0x00, 0xd3, 0x56, 0xbc, 0xed, 0xc6, 
0x02, 0x08, 0x80, 0x01, 0x80, 0x57, 0xe0, 0x6f, 0x89, 0xef, 0x82, 0x05, 0x80, 0xe1, 0x69, 0x75, 0xaf, 0x49, 0x1e, 0x89, 0xe2, 0x00, 0x80, 0x39, 0x06, 0x80, 0x77, 0x05, 0x7d, 0xdf, 0xae, 0x5a, 
0xac, 0x00, 0x00, 0x96, 0x23, 0x84, 0x72, 0x01, 0xe0, 0x00, 0xfe, 0x97, 0x69, 0x5a, 0x02, 0x98, 0x20, 0x00, 0xfc, 0x3f, 0xe0, 0xff, 0xff, 0xff, 0xff, 0xff, 0xff, 0xff, 0xff, 0xff, 0xff, 0x0f, 
0x00, 0xfe, 0xff, 0xff, 0xff, 0xff, 0xff, 0xff, 0xff, 0xff, 0xff, 0xff, 0xff, 0xff, 0xff, 0xff, 0xf3, 0x00, 0x00, 0x00, 0x00, 0x33, 0x8f, 0xc0, 0x67, 0x26, 0x25, 0x07, 0x00, 0x00, 0x00, 0x33, 
0x8f, 0xc0, 0x67, 0x26, 0x23, 0x12, 0x00, 0x00, 0x00, 0x33, 0x8f, 0xc0, 0x67, 0x26, 0xb3, 0x06, 0x00, 0x00, 0x00, 0x33, 0x8f, 0xc0, 0x67, 0x26, 0xac, 0x1a, 0x00, 0x00, 0x00, 0x33, 0x8f, 0xc0, 
0x67, 0x26, 0x86, 0x1a, 0x00, 0x00, 0x00, 0x33, 0x8f, 0xc0, 0x67, 0x26, 0xd6, 0xfe, 0xff, 0xff, 0xff, 0x33, 0x8f, 0xc0, 0x67, 0x26, 0xa3, 0x03, 0x00, 0x00, 0x00, 0x33, 0x8f, 0xc0, 0x67, 0x26, 
0xa2, 0x11, 0x00, 0x00, 0x00, 0x33, 0x8f, 0xc0, 0x67, 0x26, 0x29, 0x11, 0x00, 0x00, 0x00, 0x33, 0x8f, 0xc0, 0x67, 0x26, 0xe2, 0xf4, 0xff, 0xff, 0xff, 0x33, 0x8f, 0xc0, 0x67, 0x26, 0xad, 0xff, 
0xff, 0xff, 0xff, 0x33, 0x8f, 0xc0, 0x67, 0x26, 0x26, 0x0e, 0x00, 0x00, 0x00, 0x33, 0x8f, 0xc0, 0x67, 0x26, 0xc1, 0x0a, 0x00, 0x00, 0x00, 0x33, 0x8f, 0xc0, 0x67, 0x26, 0x6e, 0x00, 0x00, 0x00, 
0x00, 0x33, 0x8f, 0xc0, 0x67, 0x26, 0x64, 0x15, 0x00, 0x00, 0x00, 0x33, 0x8f, 0xc0, 0x67, 0x26, 0xfe, 0x1f, 0x54, 0xf0, 0x09, 0x10, 0x16, 0x84, 0x14, 0x82, 0x43, 0x19, 0xc9, 0x33, 0x4c, 0xd2, 
0x31, 0x7a, 0x5b, 0x56, 0x2d, 0x0c, 0x77, 0x29, 0x62, 0xd4, 0x90, 0x60, 0xc8, 0x42, 0xaf, 0x00, 0x8f, 0x91, 0xfc, 0x28, 0x70, 0x26, 0xec, 0x37, 0x31, 0x82, 0x76, 0x5f, 0x72, 0xb8, 0x3d, 0xde, 
0x35, 0xb2, 0x40, 0xc2, 0x21, 0x26, 0xdc, 0xa1, 0xc7, 0x70, 0x67, 0xbc, 0x46, 0xc4, 0x5f, 0x8c, 0x74, 0x3d, 0xc2, 0x15, 0xb0, 0x37, 0xfc, 0xa2, 0x80, 0xf4, 0x24, 0xa9, 0x2f, 0x0b, 0x3f, 0x6e, 
0xc1, 0x4e, 0x48, 0x30, 0x5e, 0xe0, 0x30, 0x19, 0x7a, 0x67, 0x4c, 0x06, 0x24, 0x23, 0xe1, 0xce, 0xca, 0x4f, 0xfc, 0xfb, 0x54, 0x7c, 0xe4, 0x49, 0x46, 0x39, 0x66, 0x7c, 0x07, 0x42, 0x3d, 0x39, 
0xde, 0x37, 0xdc, 0x0f, 0x7c, 0xea, 0x66, 0x6e, 0x41, 0x2d, 0xf1, 0xe8, 0x19, 0x25, 0xe5, 0x17, 0x68, 0x70, 0xa5, 0x60, 0xb8, 0x0c, 0x2d, 0xbe, 0x80, 0xa5, 0xb7, 0x32, 0x01, 0x8f, 0xed, 0x10, 
0xc2, 0x8a, 0xc4, 0x15, 0xd8, 0xff, 0x66, 0x64, 0x88, 0x55, 0xa8, 0x03, 0x36, 0xed, 0xfa, 0xf2, 0xd0, 0x93, 0x6d, 0x34, 0xdd, 0xdd, 0x9a, 0xd5, 0x88, 0x35, 0x7c, 0xc6, 0x3d, 0x74, 0xcf, 0xa3, 
0x9e, 0x28, 0x04, 0xfe, 0x3d, 0x9d, 0xae, 0xa7, 0xb2, 0x4f, 0xe9, 0xa5, 0x68, 0xcc, 0x30, 0x87, 0x20, 0xf7, 0x80, 0x6b, 0x72, 0x33, 0x01, 0xd9, 0x0e, 0x07, 0x5e, 0x15, 0xcc, 0xfc, 0x41, 0x6b, 
0xb5, 0x7d, 0x06, 0x9c, 0x4d, 0x17, 0xf8, 0xe5, 0x75, 0x22, 0xc3, 0x0a, 0x5f, 0x7f, 0x3b, 0x58, 0x37, 0xc6, 0x00, 0xa3, 0x05, 0x98, 0x4e, 0x21, 0xa5, 0xc5, 0x5c, 0x9a, 0x99, 0xd9, 0x64, 0x17, 
0x95, 0x31, 0xb1, 0xd1, 0x01, 0xc0, 0x5f, 0xf5, 0x6f, 0x12, 0x7a, 0x7a, 0x24, 0xcc, 0x6c, 0x67, 0x66, 0x6b, 0x34, 0x53, 0x22, 0x38, 0x9a, 0xde, 0x0a, 0x07, 0xe9, 0x61, 0xd6, 0x4e, 0xdd, 0xa5, 
0x56, 0x4a, 0x45, 0xd9, 0xd4, 0x27, 0xe9, 0x97, 0x5e, 0x37, 0x6d, 0x71, 0x76, 0x4f, 0x88, 0xe5, 0x99, 0x8b, 0x61, 0x0f, 0xee, 0x3c, 0x0f, 0x63, 0xf7, 0x42, 0x50, 0xa1, 0x8c, 0x74, 0xef, 0xe1, 
0xec, 0x1d, 0x98, 0xa7, 0x1d, 0x46, 0x45, 0xc5, 0x04, 0x03, 0x0a, 0x35, 0x04, 0xb2, 0x07, 0xfc, 0x95, 0xc4, 0xc0, 0xa1, 0xaa, 0x1c, 0x02, 0x5c, 0xdb, 0xd0, 0x6f, 0xc7, 0xf0, 0x34, 0x78, 0xa2, 
0xb3, 0xe8, 0xef, 0xe9, 0x11, 0x90, 0x8c, 0x68, 0xbf, 0x8d, 0xc8, 0x59, 0xd4, 0x43, 0xec, 0xb0, 0x15, 0x33, 0xfc, 0x9a, 0x0c, 0xdc, 0xf1, 0xbe, 0xc1, 0x60, 0x9f, 0x7c, 0xb3, 0xfa, 0x25, 0x85, 
0x60, 0xd4, 0x43, 0x03, 0x99, 0xa7, 0xff, 0x3b, 0x1f, 0x88, 0x92, 0xf9, 0xd7, 0x28, 0x98, 0xaa, 0xf4, 0xe5, 0x73, 0xdb, 0xb7, 0x1b, 0x75, 0x67, 0x87, 0xb7, 0xdb, 0x9e, 0x2e, 0xcf, 0x64, 0x3c, 
0x41, 0xa9, 0xf2, 0x7d, 0xb3, 0x34, 0xd7, 0xfd, 0x0c, 0xd3, 0xaf, 0x6d, 0xc6, 0x75, 0x11, 0xb1, 0xec, 0x51, 0x77, 0x8c, 0x6a, 0x0f, 0x6a, 0x33, 0x51, 0xfc, 0xad, 0x6f, 0x00, 0xac, 0x64, 0xb9, 
0x3d, 0x7e, 0x4f, 0xe5, 0x67, 0xe4, 0xcf, 0x2f, 0x5a, 0x1d, 0xdf, 0x54, 0x16, 0xbe, 0xf4, 0xe4, 0xf2, 0xc0, 0xbd, 0x80, 0x6d, 0x5f, 0x19, 0x71, 0x1c, 0x67, 0x7c, 0xbe, 0x9f, 0xae, 0x8f, 0x04, 
0xc7, 0x3a, 0x03, 0xe1, 0x13, 0xeb, 0x18, 0xd5, 0x61, 0xb9, 0x62, 0x37, 0x4b, 0x50, 0x13, 0x15, 0x51, 0x53, 0x7d, 0x71, 0xea, 0xf0, 0xea, 0x3c, 0xf3, 0x35, 0xc0, 0xcf, 0x37, 0x95, 0xe4, 0x4e, 
0xb3, 0x7f, 0x31, 0x7e, 0xb1, 0x33, 0xd7, 0xbb, 0x15, 0x98, 0xeb, 0x88, 0x20, 0x9b, 0xef, 0xce, 0xfb, 0xbe, 0x10, 0x81, 0xc1, 0xd9, 0x75, 0x4d, 0x45, 0x68, 0xc0, 0x3f, 0x70, 0x4d, 0x29, 0xdc, 
0xec, 0x6a, 0x20, 0xa8, 0xd8, 0x81, 0x9f, 0x02, 0x63, 0x82, 0x32, 0x17, 0x43, 0xe5, 0xa6, 0x33, 0xf1, 0x9f, 0xf3, 0x6e, 0x77, 0xb6, 0xfb, 0x62, 0xdc, 0x5a, 0xe6, 0xf1, 0xd6, 0x50, 0x2f, 0x81, 
0xd3, 0x01, 0x5f, 0x76, 0x4d, 0x20, 0xe8, 0x94, 0x02, 0x5f, 0x4b, 0xc4, 0xd2, 0xcb, 0x04, 0x84, 0x6f, 0x97, 0xd8, 0x92, 0x26, 0x0f, 0x8b, 0xda, 0x91, 0x8e, 0x50, 0xb6, 0x6d, 0x40, 0x02, 0xc0, 
0x03, 0xf2, 0x36, 0x95, 0x6f, 0xa4, 0xf1, 0xd5, 0xab, 0x0d, 0x90, 0x61, 0xc9, 0x91, 0xe0, 0x19, 0xae, 0xae, 0xd2, 0xee, 0x5f, 0x4b, 0x1e, 0x37, 0x4f, 0x39, 0x0b, 0x90, 0x30, 0x1f, 0x6d, 0x87, 
0xd1, 0xfd, 0x06, 0x1d, 0x0d, 0x98, 0x9f, 0x85, 0xdd, 0x55, 0xc0, 0x01, 0x94, 0x17, 0x98, 0xae, 0x43, 0x09, 0x61, 0x64, 0x9f, 0x76, 0x71, 0x99, 0xb1, 0x47, 0xa7, 0x67, 0x6f, 0x46, 0x7e, 0x12, 
0x4b, 0x5e, 0xc3, 0xd5, 0xfb, 0x9f, 0xea, 0x15, 0x81, 0xdc, 0xf7, 0x04, 0xce, 0x90, 0x3f, 0x70, 0xbc, 0x82, 0xef, 0xe2, 0x95, 0xe7, 0x7d, 0xcb, 0x64, 0x32, 0x34, 0xa9, 0x0a, 0x00, 0x44, 0xcb, 
0xb2, 0x1f, 0x0b, 0x76, 0x1e, 0x6f, 0x0d, 0x7b, 0xcd, 0x5a, 0x44, 0xa7, 0xb9, 0xf7, 0xda, 0x44, 0x32, 0xdd, 0x60, 0x26, 0x80, 0x3b, 0x84, 0xf9, 0xed, 0xa6, 0x9c, 0x73, 0x82, 0xad, 0xa1, 0x30, 
0x97, 0xf8, 0xea, 0xbe, 0xdb, 0x41, 0xae, 0xb9, 0xe6, 0xbf, 0x87, 0xd9, 0xaf, 0xaf, 0x9f, 0x17, 0x83, 0xc3, 0xd5, 0x99, 0x39, 0x91, 0x69, 0xbb, 0xfd, 0x2f, 0xf4, 0xba, 0x59, 0x19, 0x8b, 0x22, 
0x5e, 0xf6, 0x48, 0x23, 0x83, 0xf5, 0x02, 0x33, 0x03, 0x58, 0xdf, 0xf4, 0x81, 0x86, 0x31, 0xaf, 0x87, 0x17, 0x6f, 0x42, 0xf4, 0x5b, 0x28, 0x05, 0xc9, 0x70, 0xe4, 0x46, 0xd7, 0x0b, 0x76, 0xd9, 
0x0c, 0xe0, 0x7c, 0xa1, 0x1b, 0xec, 0x74, 0x7d, 0x92, 0xe3, 0xb5, 0xd7, 0x3d, 0xda, 0xd8, 0xb1, 0x43, 0xe3, 0xe0, 0x4c, 0x12, 0x9d, 0x5f, 0x02, 0x87, 0x9f, 0x96, 0xff, 0x48, 0x11, 0xe0, 0xb6, 
0xec, 0x4c, 0x49, 0xaf, 0x0a, 0x92, 0x05, 0x9d, 0x10, 0x75, 0xa4, 0x26, 0x52, 0x40, 0xf6, 0xb7, 0xf4, 0xd6, 0x04, 0x64, 0x7a, 0x1e, 0xa7, 0x1f, 0x52, 0xf1, 0xd1, 0xdd, 0xb1, 0xfc, 0x93, 0xab, 
0x45, 0x3d, 0xcd, 0xac, 0x6f, 0xfd, 0xb4, 0x09, 0xe6, 0xe1, 0x1f, 0xfd, 0x3d, 0xb0, 0xf1, 0xc1, 0xc1, 0x6f, 0x94, 0xb8, 0xe0, 0x91, 0xed, 0xbd, 0xeb, 0x10, 0x0d, 0xb5, 0xd8, 0x3a, 0xfb, 0xfa, 
0x18, 0x40, 0x26, 0x73, 0x6d, 0xe2, 0xd4, 0x77, 0xc2, 0x72, 0x20, 0x78, 0x3b, 0x73, 0x81, 0x7f, 0xcc, 0x9f, 0xdd, 0xfa, 0x49, 0x92, 0x3e, 0x3c, 0x49, 0xf5, 0x1b, 0x7c, 0xeb, 0xe0, 0xe5, 0xb1, 
0xad, 0xe6, 0x3b, 0x95, 0x62, 0xf4, 0x54, 0xb4, 0xb1, 0xfb, 0x87, 0x5f, 0x7e, 0x83, 0x01, 0xd0, 0xbd, 0x4d, 0x85, 0x00, 0xaf, 0x7c, 0xfa, 0xff, 0xff, 0xff, 0xff, 0xff, 0xff, 0xff, 0xff, 0xff, 
0x1b, 0x15, 0x00, 0x00, 0x00, 0x33, 0x8f, 0xc0, 0x67, 0x26, 0xfa, 0xf6, 0xff, 0xff, 0xff, 0x33, 0x8f, 0xc0, 0x67, 0x26, 0xa5, 0xff, 0xff, 0xff, 0xff, 0x33, 0x8f, 0xc0, 0x67, 0x26, 0x62, 0x03, 
0x00, 0x00, 0x00, 0x33, 0x8f, 0xc0, 0x67, 0x26, 0xfd, 0xfb, 0xff, 0xff, 0xff, 0x33, 0x8f, 0xc0, 0x67, 0x26, 0xfe, 0x0d, 0x00, 0x00, 0x00, 0x33, 0x8f, 0xc0, 0x67, 0x26, 0x89, 0xfa, 0xff, 0xff, 
0xff, 0x33, 0x8f, 0xc0, 0x67, 0x26, 0x95, 0x0c, 0x00, 0x00, 0x00, 0x33, 0x8f, 0xc0, 0x67, 0x26, 0xe4, 0x17, 0x00, 0x00, 0x00, 0x33, 0x8f, 0xc0, 0x67, 0x26, 0x93, 0x05, 0x00, 0x00, 0x00, 0x33, 
0x8f, 0xc0, 0x67, 0x26, 0x02, 0x13, 0x00, 0x00, 0x00, 0x33, 0x8f, 0xc0, 0x67, 0x26, 0xe6, 0x0d, 0x00, 0x00, 0x00, 0x33, 0x8f, 0xc0, 0x67, 0x26, 0x08, 0xf6, 0xff, 0xff, 0xff, 0x33, 0x8f, 0xc0, 
0x67, 0x26, 0x41, 0x04, 0x00, 0x00, 0x00, 0x33, 0x8f, 0xc0, 0x67, 0x26, 0xdc, 0x0e, 0x00, 0x00, 0x00, 0x33, 0x8f, 0xc0, 0x67, 0x26, 0x56, 0xef, 0xff, 0xff, 0xff, 0x33, 0x8f, 0xc0, 0x67, 0x26, 
0xfe, 0x1f, 0x54, 0xf0, 0xc9, 0x18, 0x04, 0x50, 0x39, 0x48, 0xb1, 0x0c, 0x98, 0xc2, 0x51, 0x5a, 0x22, 0x3d, 0x8d, 0x00, 0x5a, 0xd7, 0xf1, 0x4d, 0x11, 0xe4, 0xc5, 0xe9, 0x29, 0x00, 0x03, 0x66, 
0x77, 0x08, 0x6a, 0xec, 0x30, 0x39, 0x1c, 0x0d, 0x6c, 0x41, 0x9e, 0xe5, 0x39, 0x0d, 0x7a, 0xcb, 0xc0, 0x00, 0xd9, 0xba, 0x17, 0xdd, 0x12, 0x02, 0x1d, 0x83, 0x40, 0x47, 0x99, 0xf3, 0x10, 0x13, 
0xd4, 0xe0, 0xe5, 0x04, 0x02, 0x8a, 0xd5, 0x80, 0x7c, 0x09, 0xc2, 0x0c, 0x47, 0xdb, 0x2c, 0x46, 0xd4, 0x63, 0xca, 0x7b, 0xf3, 0x84, 0x56, 0x52, 0x76, 0xc4, 0xb2, 0xa5, 0x64, 0xb5, 0x2d, 0x71, 
0x7f, 0x3e, 0x74, 0x33, 0x87, 0xd9, 0xd2, 0xc9, 0x1e, 0x6c, 0x4a, 0x91, 0x30, 0xc0, 0xf6, 0x34, 0x3e, 0x09, 0x6c, 0x05, 0x04, 0x8a, 0x0c, 0x42, 0x4a, 0x19, 0x75, 0x84, 0x35, 0x5b, 0x65, 0xe1, 
0x4a, 0x28, 0x03, 0x9e, 0x84, 0x44, 0xa7, 0x0a, 0xd4, 0x6d, 0x32, 0x03, 0xc2, 0x72, 0x65, 0x8f, 0x13, 0xa1, 0xa7, 0x71, 0xfd, 0x44, 0x86, 0xc5, 0x88, 0x98, 0xea, 0xec, 0x5a, 0xd2, 0xcf, 0x08, 
0xe4, 0xd9, 0x31, 0xaa, 0xb9, 0xdb, 0x6e, 0x8c, 0x87, 0x01, 0x74, 0xc8, 0xfc, 0x16, 0x86, 0x0e, 0x13, 0x5e, 0xeb, 0x8f, 0xbf, 0x26, 0xa6, 0x89, 0x60, 0x0f, 0xee, 0x70, 0x5e, 0x7a, 0xce, 0x49, 
0xb2, 0xa8, 0xb4, 0xb8, 0xaf, 0x9d, 0x98, 0xb9, 0x90, 0xcd, 0x19, 0xc3, 0xe5, 0xb0, 0x50, 0x38, 0x8d, 0x4d, 0x6b, 0x0a, 0xcf, 0xa2, 0xbb, 0x1f, 0x91, 0xd8, 0x90, 0x90, 0x08, 0xa5, 0x01, 0x8d, 
0x2c, 0xd0, 0x90, 0x14, 0xd0, 0x91, 0x06, 0x0c, 0xd8, 0x8a, 0x68, 0x22, 0x96, 0x07, 0x06, 0xa2, 0xdf, 0xeb, 0x89, 0x0a, 0x54, 0x49, 0x1b, 0x50, 0x7e, 0x58, 0xcc, 0x67, 0xdc, 0x98, 0x92, 0xfe, 
0x76, 0xa2, 0x0c, 0xe5, 0x2a, 0xec, 0x15, 0x38, 0x9a, 0x0a, 0xa0, 0xe8, 0x1e, 0x00, 0x3c, 0xa2, 0x14, 0xf1, 0xfe, 0x87, 0xa2, 0x46, 0xec, 0x22, 0xe8, 0xca, 0xa3, 0xe0, 0xab, 0xa1, 0x08, 0xbc, 
0xda, 0x1d, 0x91, 0x08, 0x17, 0xf2, 0x75, 0x3b, 0xa7, 0xce, 0x8e, 0xf0, 0xac, 0xc9, 0xb8, 0xa2, 0x09, 0x1e, 0x3f, 0xa8, 0x39, 0xc8, 0xf1, 0x9b, 0xd5, 0x87, 0x20, 0xa3, 0xd6, 0xff, 0x12, 0x6c, 
0x7b, 0x01, 0x25, 0x28, 0xb4, 0xad, 0x36, 0xea, 0xf8, 0x08, 0x90, 0x89, 0xb7, 0xe9, 0x2a, 0x43, 0x5e, 0x84, 0xde, 0xe0, 0x09, 0xf6, 0x34, 0x6b, 0x0d, 0xc1, 0xd4, 0xee, 0xe8, 0x6f, 0xb1, 0x5e, 
0xd1, 0x9b, 0x69, 0x1d, 0xfa, 0x4a, 0xa1, 0xd9, 0x41, 0x4e, 0xec, 0xc9, 0xfd, 0x2c, 0x33, 0x10, 0xb9, 0xa8, 0x13, 0x91, 0x2a, 0xbc, 0x70, 0x14, 0x80, 0xc9, 0xc1, 0x6a, 0x32, 0x25, 0x10, 0xf2, 
0x36, 0x44, 0x3f, 0x59, 0x82, 0x57, 0x1c, 0x00, 0xc0, 0x70, 0x83, 0xce, 0xd9, 0x3a, 0x28, 0x8d, 0xef, 0x0a, 0xec, 0xe6, 0x22, 0x45, 0x80, 0x89, 0x54, 0xfb, 0xdf, 0x17, 0xeb, 0x06, 0x2f, 0xb0, 
0x3c, 0x71, 0x1c, 0x72, 0x02, 0xcb, 0x16, 0xb3, 0x20, 0xe5, 0x41, 0x65, 0x21, 0x66, 0x34, 0x10, 0xb0, 0x53, 0x61, 0x0c, 0xc0, 0x3c, 0x6b, 0xbc, 0x6e, 0x1d, 0x00, 0x5f, 0x04, 0x6e, 0x2f, 0x36, 
0x21, 0x0f, 0x9a, 0xf9, 0xe2, 0xea, 0xae, 0x61, 0x45, 0xcf, 0x51, 0x1c, 0x60, 0x10, 0xf8, 0x20, 0xea, 0x76, 0x55, 0x00, 0x9c, 0xe4, 0x17, 0xe8, 0x89, 0x77, 0x7b, 0xf8, 0x33, 0x5d, 0xd6, 0xb7, 
0x76, 0x36, 0x48, 0xd8, 0x57, 0x0d, 0x5b, 0x72, 0x95, 0x5e, 0x8b, 0x1c, 0x21, 0x17, 0x6e, 0x04, 0xe7, 0xff, 0x2f, 0x2a, 0xf8, 0x7b, 0xf7, 0x70, 0xd1, 0x2d, 0x02, 0xa6, 0xbb, 0xfc, 0x0d, 0x7d, 
0x2d, 0xac, 0x8f, 0x35, 0xe7, 0xaf, 0xa1, 0xd2, 0x23, 0x52, 0xe8, 0x73, 0x08, 0x87, 0x8f, 0xec, 0x4e, 0xb2, 0xaf, 0x72, 0x3d, 0x10, 0xb9, 0x8a, 0x95, 0x2f, 0x96, 0xbb, 0x83, 0x74, 0x10, 0x38, 
0x3b, 0x9f, 0xf2, 0x2d, 0xab, 0x68, 0xcd, 0x3c, 0x32, 0x56, 0x29, 0x4c, 0x3c, 0x46, 0xa8, 0xcd, 0x01, 0xc3, 0x2e, 0x52, 0x0c, 0x84, 0x29, 0x5c, 0x75, 0x5c, 0x7b, 0xbe, 0x91, 0x80, 0x1b, 0x20, 
0xc5, 0x56, 0x15, 0xcf, 0x81, 0xf1, 0xaa, 0xee, 0x0a, 0x3b, 0x0e, 0xe1, 0x82, 0x28, 0xbf, 0xf5, 0xc9, 0x40, 0xe0, 0xf0, 0x22, 0x00, 0xb5, 0x13, 0x0e, 0x2d, 0x58, 0x43, 0xa0, 0x01, 0x07, 0x9c, 
0x48, 0x25, 0xb0, 0x10, 0x69, 0x56, 0xa8, 0xae, 0xeb, 0x2a, 0x54, 0x80, 0x85, 0x0c, 0x8d, 0xed, 0x82, 0x75, 0x97, 0xd2, 0x42, 0x06, 0x7f, 0x12, 0x02, 0x42, 0x9a, 0x64, 0x50, 0xb0, 0xff, 0x6d, 
0xbb, 0x93, 0x61, 0x33, 0xac, 0x49, 0xf6, 0x5e, 0x83, 0x03, 0xdb, 0xc1, 0xc4, 0xfd, 0x90, 0xc1, 0x2e, 0x59, 0x05, 0xa0, 0x4d, 0x7a, 0xd2, 0x82, 0x97, 0x39, 0x76, 0xb6, 0x91, 0xb2, 0x88, 0x9e, 
0x8c, 0x3e, 0xaf, 0x67, 0x3b, 0xab, 0x45, 0xb2, 0xcc, 0x37, 0x04, 0x97, 0xca, 0x78, 0xe5, 0x51, 0xe4, 0x7f, 0x2c, 0xd5, 0xb6, 0x01, 0xec, 0x3e, 0xeb, 0xb5, 0xbf, 0xe5, 0x3b, 0xcc, 0x7d, 0x28, 
0xf4, 0x57, 0x73, 0xec, 0xe6, 0x02, 0xc9, 0x6d, 0x68, 0xd3, 0xb2, 0x01, 0x19, 0x50, 0x8e, 0x6c, 0xa4, 0xc5, 0xd8, 0x7e, 0x01, 0x68, 0x4e, 0x30, 0x8f, 0x21, 0x0a, 0x84, 0xca, 0xc1, 0xad, 0xc8, 
0x80, 0x62, 0x16, 0x0e, 0xf8, 0x60, 0xd7, 0x5c, 0xd6, 0xa5, 0xe9, 0x86, 0x53, 0xea, 0x67, 0x53, 0xe6, 0xdc, 0x6e, 0x13, 0xaa, 0x2f, 0x31, 0x45, 0x71, 0xaf, 0x00, 0xff, 0xd8, 0xfd, 0x54, 0x4d, 
0x3e, 0xa9, 0x7d, 0x47, 0x76, 0x07, 0x2d, 0xa3, 0xaf, 0x4e, 0x06, 0x6b, 0x85, 0x51, 0xdb, 0x12, 0x10, 0xef, 0xe2, 0xd4, 0x5c, 0x60, 0x89, 0x09, 0x78, 0x2c, 0x02, 0x54, 0x63, 0xda, 0xd8, 0xad, 
0x32, 0x70, 0x85, 0x30, 0x59, 0x9b, 0x08, 0x83, 0xee, 0x98, 0x29, 0x73, 0xed, 0x37, 0x5e, 0xca, 0x08, 0x00, 0xa0, 0x70, 0x36, 0xe9, 0x94, 0xd0, 0x69, 0xa0, 0x90, 0x0c, 0x20, 0x8e, 0x08, 0x60, 
0xb9, 0x70, 0x1f, 0x6d, 0x2b, 0xfe, 0x8c, 0x0b, 0x89, 0xd0, 0x70, 0xe3, 0x9e, 0xe8, 0xa9, 0x1a, 0xda, 0xd6, 0xf7, 0x9e, 0xf7, 0xb2, 0xcb, 0x0c, 0xe4, 0xdd, 0xbb, 0xeb, 0x39, 0x16, 0xdb, 0x37, 
0x77, 0xfa, 0xf2, 0xcf, 0x96, 0xd8, 0x6b, 0x62, 0x05, 0xa2, 0x00, 0x80, 0x96, 0xaa, 0x3a, 0x5e, 0x04, 0x63, 0xa8, 0xe7, 0xab, 0xc9, 0x4e, 0x85, 0x9c, 0x88, 0x04, 0x80, 0xc9, 0x48, 0x25, 0x7b, 
0x81, 0xed, 0x63, 0x85, 0xfb, 0xff, 0xff, 0xff, 0xff, 0xff, 0xff, 0xff, 0xff, 0xff, 0xff, 0xff, 0x6c, 0x07, 0x00, 0x00, 0x00, 0x64, 0x4a, 0x30, 0x5d, 0x27, 0xc0, 0xfb, 0xff, 0xff, 0xff, 0x64, 
0x4a, 0x30, 0x5d, 0x27, 0xb8, 0xfb, 0xff, 0xff, 0xff, 0x64, 0x4a, 0x30, 0x5d, 0x27, 0xd4, 0xff, 0xff, 0xff, 0xff, 0x64, 0x4a, 0x30, 0x5d, 0x27, 0x00, 0x00, 0x00, 0x00, 0x00, 0x00, 0x00, 0x00, 
0xf8, 0x03, 0x54, 0xf1, 0xad, 0x44, 0xf1, 0x75, 0x12, 0xb2, 0x61, 0x31, 0x20, 0x10, 0xdc, 0x6b, 0x86, 0x75, 0x34, 0xf4, 0xd3, 0xb3, 0x23, 0xf3, 0xb2, 0x52, 0x32, 0xc2, 0x91, 0x81, 0x71, 0x51, 
0x21, 0xf1, 0xe0, 0xa0, 0xa0, 0x9f, 0x00, 0xe0, 0xb6, 0xef, 0x69, 0x57, 0x82, 0x27, 0x4a, 0x2f, 0x5c, 0x01, 0xc0, 0x1f, 0xa8, 0xc0, 0xab, 0x3e, 0x6a, 0x8d, 0xce, 0x96, 0xed, 0xfc, 0xb7, 0x01, 
0xf8, 0xcb, 0xc5, 0xc9, 0x0a, 0x04, 0xd3, 0xde, 0xff, 0xff, 0x7d, 0xcb, 0xd7, 0x08, 0xb7, 0x01, 0xff, 0xdf, 0x76, 0xc4, 0xd1, 0x1f, 0x40, 0x7f, 0x5c, 0xe6, 0x62, 0x04, 0x02, 0x80, 0x75, 0x7c, 
0x07, 0x0e, 0x00, 0xfd, 0x08, 0x17, 0x2b, 0x50, 0x1e, 0xc4, 0x3a, 0x40, 0x8f, 0xa3, 0x2f, 0x8f, 0xfe, 0x5f, 0x67, 0x1d, 0x68, 0xe3, 0xa1, 0xb4, 0xff, 0x9f, 0x40, 0xa8, 0x73, 0xf4, 0xf7, 0x0f, 
0x00, 0x40, 0x2c, 0x0b, 0x00, 0x85, 0xd8, 0x5f, 0xc1, 0xd6, 0xe2, 0x2c, 0xb6, 0x71, 0x84, 0xff, 0xbf, 0x71, 0xa3, 0xc8, 0xbb, 0x19, 0x93, 0xff, 0xbf, 0x53, 0x81, 0xd0, 0x44, 0xff, 0xef, 0x62, 
0x67, 0x40, 0x4d, 0x0e, 0x00, 0x39, 0x02, 0x00, 0x8f, 0x18, 0x94, 0xcd, 0x8b, 0x69, 0xb1, 0x00, 0xf0, 0x38, 0x6c, 0x9f, 0x85, 0xd1, 0xf2, 0xfc, 0xff, 0xff, 0x3f, 0xc0, 0xff, 0xff, 0xff, 0xff, 
0x73, 0x63, 0x72, 0x61, 0x74, 0x63, 0x68, 0x5f, 0x64, 0x61, 0x74, 0x61, 0x00, 0x00, 0x00, 0x00, 0x40, 0x0e, 0x00, 0x00, 0x00, 0x00, 0x00, 0x00, 0x00, 0x00, 0x00, 0x00, 0x00, 0x00, 0x00, 0x00, 
0x00, 0x00, 0x00, 0x00, 0x00, 0x00, 0x00, 0x00, 0x00, 0x00, 0x00, 0x00, 0x00, 0x00, 0x00, 0x00, 0x00, 0x00, 0x00, 0x00, 0x00, 0x00, 0x00, 0x00, 0x00, 0x00, 0x00, 0x00, 0x00, 0x00, 0x00, 0x00, 
0x00, 0x00, 0x00, 0x00, 0x00, 0x00, 0x00, 0x00, 0x00, 0x00, 0x00, 0x00, 0x00, 0x00, 0x00, 0x00, 0x00, 0x00, 0x00, 0x00, 0x00, 0x00, 0x00, 0x00, 0x00, 0x00, 0x00, 0x00, 0x00, 0x00, 0x00, 0x00, 
0x00, 0x00, 0x00, 0x00, 0x00, 0x00, 0x00, 0x00, 0x00, 0x00, 0x00, 0x00, 0x00, 0x00, 0x00, 0x00, 0x00, 0x00, 0x00, 0x00, 0x00, 0x00, 0x00, 0x00, 0x00, 0x00, 0x00, 0x00, 0x00, 0x00, 0x00, 0x00, 
0x00, 0x00, 0x00, 0x00, 0x00, 0x00, 0x00, 0x00, 0x00, 0x00, 0x00, 0x00, 0x00, 0x00, 0x00, 0x00, 0x00, 0x00, 0x00, 0x00, 0x00, 0x00, 0x00, 0x00, 0x00, 0x00, 0x00, 0x00, 0x00, 0x00, 0x00, 0x00, 
0x00, 0x00, 0x00, 0x00, 0x00, 0x00, 0x00, 0x00, 0x00, 0x00, 0x00, 0x00, 0x00, 0x00, 0x00, 0x00, 0x00, 0x00, 0x00, 0x00, 0x00, 0x00, 0x00, 0x00, 0x00, 0x00, 0x00, 0x00, 0x00, 0x00, 0x00, 0x00, 
0x00, 0x00, 0x00, 0x00, 0x00, 0x00, 0x00, 0x00, 0x00, 0x00, 0x00, 0x00, 0x00, 0x00, 0x00, 0x00, 0x00, 0x00, 0x00, 0x00, 0x00, 0x00, 0x00, 0x00, 0x00, 0x00, 0x00, 0x00, 0x00, 0x00, 0x00, 0x00, 
0x00, 0x00, 0x00, 0x00, 0x00, 0x00, 0x00, 0x00, 0x00, 0x00, 0x00, 0x00, 0x00, 0x00, 0x00, 0x00, 0x00, 0x00, 0x00, 0x00, 0x00, 0x00, 0x00, 0x00, 0x00, 0x00, 0x00, 0x00, 0x00, 0x00, 0x00, 0x00, 
0x00, 0x00, 0x00, 0x00, 0x00, 0x00, 0x00, 0x00, 0x00, 0x00, 0x00, 0x00, 0x00, 0x00, 0x00, 0x00, 0x00, 0x00, 0x00, 0x00, 0x00, 0x00, 0x00, 0x00, 0x00, 0x00, 0x00, 0x00, 0x00, 0x00, 0x00, 0x00, 
0x00, 0x00, 0x00, 0x00, 0x00, 0x00, 0x00, 0x00, 0x00, 0x00, 0x00, 0x00, 0x00, 0x00, 0x00, 0x00, 0x00, 0x00, 0x00, 0x00, 0x00, 0x00, 0x00, 0x00, 0x00, 0x00, 0x00, 0x00, 0x00, 0x00, 0x00, 0x00, 
0x00, 0x00, 0x00, 0x00, 0x00, 0x00, 0x00, 0x00, 0x00, 0x00, 0x00, 0x00, 0x00, 0x00, 0x00, 0x00, 0x00, 0x00, 0x00, 0x00, 0x00, 0x00, 0x00, 0x00, 0x00, 0x00, 0x00, 0x00, 0x00, 0x00, 0x00, 0x00, 
0x00, 0x00, 0x00, 0x00, 0x00, 0x00, 0x00, 0x00, 0x00, 0x00, 0x00, 0x00, 0x00, 0x00, 0x00, 0x00, 0x00, 0x00, 0x00, 0x00, 0x00, 0x00, 0x00, 0x00, 0x00, 0x00, 0x00, 0x00, 0x00, 0x00, 0x00, 0x00, 
0x00, 0x00, 0x00, 0x00, 0x00, 0x00, 0x00, 0x00, 0x00, 0x00, 0x00, 0x00, 0x00, 0x00, 0x00, 0x00, 0x00, 0x00, 0x00, 0x00, 0x00, 0x00, 0x00, 0x00, 0x00, 0x00, 0x00, 0x00, 0x00, 0x00, 0x00, 0x00, 
0x00, 0x00, 0x00, 0x00, 0x00, 0x00, 0x00, 0x00, 0x00, 0x00, 0x00, 0x00, 0x00, 0x00, 0x00, 0x00, 0x00, 0x00, 0x00, 0x00, 0x00, 0x00, 0x00, 0x00, 0x00, 0x00, 0x00, 0x00, 0x00, 0x00, 0x00, 0x00, 
0x00, 0x00, 0x00, 0x00, 0x00, 0x00, 0x00, 0x00, 0x00, 0x00, 0x00, 0x00, 0x00, 0x00, 0x00, 0x00, 0x00, 0x00, 0x00, 0x00, 0x00, 0x00, 0x00, 0x00, 0x00, 0x00, 0x00, 0x00, 0x00, 0x00, 0x00, 0x00, 
0x00, 0x00, 0x00, 0x00, 0x00, 0x00, 0x00, 0x00, 0x00, 0x00, 0x00, 0x00, 0x00, 0x00, 0x00, 0x00, 0x00, 0x00, 0x00, 0x00, 0x00, 0x00, 0x00, 0x00, 0x00, 0x00, 0x00, 0x00, 0x00, 0x00, 0x00, 0x00, 
0x00, 0x00, 0x00, 0x00, 0x00, 0x00, 0x00, 0x00, 0x00, 0x00, 0x00, 0x00, 0x00, 0x00, 0x00, 0x00, 0x00, 0x00, 0x00, 0x00, 0x00, 0x00, 0x00, 0x00, 0x00, 0x00, 0x00, 0x00, 0x00, 0x00, 0x00, 0x00, 
0x00, 0x00, 0x00, 0x00, 0x00, 0x00, 0x00, 0x00, 0x00, 0x00, 0x00, 0x00, 0x00, 0x00, 0x00, 0x00, 0x00, 0x00, 0x00, 0x00, 0x00, 0x00, 0x00, 0x00, 0x00, 0x00, 0x00, 0x00, 0x00, 0x00, 0x00, 0x00, 
0x00, 0x00, 0x00, 0x00, 0x00, 0x00, 0x00, 0x00, 0x00, 0x00, 0x00, 0x00, 0x00, 0x00, 0x00, 0x00, 0x00, 0x00, 0x00, 0x00, 0x00, 0x00, 0x00, 0x00, 0x00, 0x00, 0x00, 0x00, 0x00, 0x00, 0x00, 0x00, 
0x00, 0x00, 0x00, 0x00, 0x00, 0x00, 0x00, 0x00, 0x00, 0x00, 0x00, 0x00, 0x00, 0x00, 0x00, 0x00, 0x00, 0x00, 0x00, 0x00, 0x00, 0x00, 0x00, 0x00, 0x00, 0x00, 0x00, 0x00, 0x00, 0x00, 0x00, 0x00, 
0x00, 0x00, 0x00, 0x00, 0x00, 0x00, 0x00, 0x00, 0x00, 0x00, 0x00, 0x00, 0x00, 0x00, 0x00, 0x00, 0x00, 0x00, 0x00, 0x00, 0x00, 0x00, 0x00, 0x00, 0x00, 0x00, 0x00, 0x00, 0x00, 0x00, 0x00, 0x00, 
0x00, 0x00, 0x00, 0x00, 0x00, 0x00, 0x00, 0x00, 0x00, 0x00, 0x00, 0x00, 0x00, 0x00, 0x00, 0x00, 0x00, 0x00, 0x00, 0x00, 0x00, 0x00, 0x00, 0x00, 0x00, 0x00, 0x00, 0x00, 0x00, 0x00, 0x00, 0x00, 
0x00, 0x00, 0x00, 0x00, 0x00, 0x00, 0x00, 0x00, 0x00, 0x00, 0x00, 0x00, 0x00, 0x00, 0x00, 0x00, 0x00, 0x00, 0x00, 0x00, 0x00, 0x00, 0x00, 0x00, 0x00, 0x00, 0x00, 0x00, 0x00, 0x00, 0x00, 0x00, 
0x00, 0x00, 0x00, 0x00, 0x00, 0x00, 0x00, 0x00, 0x00, 0x00, 0x00, 0x00, 0x00, 0x00, 0x00, 0x00, 0x00, 0x00, 0x00, 0x00, 0x00, 0x00, 0x00, 0x00, 0x00, 0x00, 0x00, 0x00, 0x00, 0x00, 0x00, 0x00, 
0x00, 0x00, 0x00, 0x00, 0x00, 0x00, 0x00, 0x00, 0x00, 0x00, 0x00, 0x00, 0x00, 0x00, 0x00, 0x00, 0x00, 0x00, 0x00, 0x00, 0x00, 0x00, 0x00, 0x00, 0x00, 0x00, 0x00, 0x00, 0x00, 0x00, 0x00, 0x00, 
0x00, 0x00, 0x00, 0x00, 0x00, 0x00, 0x00, 0x00, 0x00, 0x00, 0x00, 0x00, 0x00, 0x00, 0x00, 0x00, 0x00, 0x00, 0x00, 0x00, 0x00, 0x00, 0x00, 0x00, 0x00, 0x00, 0x00, 0x00, 0x00, 0x00, 0x00, 0x00, 
0x00, 0x00, 0x00, 0x00, 0x00, 0x00, 0x00, 0x00, 0x00, 0x00, 0x00, 0x00, 0x00, 0x00, 0x00, 0x00, 0x00, 0x00, 0x00, 0x00, 0x00, 0x00, 0x00, 0x00, 0x00, 0x00, 0x00, 0x00, 0x00, 0x00, 0x00, 0x00, 
0x00, 0x00, 0x00, 0x00, 0x00, 0x00, 0x00, 0x00, 0x00, 0x00, 0x00, 0x00, 0x00, 0x00, 0x00, 0x00, 0x00, 0x00, 0x00, 0x00, 0x00, 0x00, 0x00, 0x00, 0x00, 0x00, 0x00, 0x00, 0x00, 0x00, 0x00, 0x00, 
0x00, 0x00, 0x00, 0x00, 0x00, 0x00, 0x00, 0x00, 0x00, 0x00, 0x00, 0x00, 0x00, 0x00, 0x00, 0x00, 0x00, 0x00, 0x00, 0x00, 0x00, 0x00, 0x00, 0x00, 0x00, 0x00, 0x00, 0x00, 0x00, 0x00, 0x00, 0x00, 
0x00, 0x00, 0x00, 0x00, 0x00, 0x00, 0x00, 0x00, 0x00, 0x00, 0x00, 0x00, 0x00, 0x00, 0x00, 0x00, 0x00, 0x00, 0x00, 0x00, 0x00, 0x00, 0x00, 0x00, 0x00, 0x00, 0x00, 0x00, 0x00, 0x00, 0x00, 0x00, 
0x00, 0x00, 0x00, 0x00, 0x00, 0x00, 0x00, 0x00, 0x00, 0x00, 0x00, 0x00, 0x00, 0x00, 0x00, 0x00, 0x00, 0x00, 0x00, 0x00, 0x00, 0x00, 0x00, 0x00, 0x00, 0x00, 0x00, 0x00, 0x00, 0x00, 0x00, 0x00, 
0x00, 0x00, 0x00, 0x00, 0x00, 0x00, 0x00, 0x00, 0x00, 0x00, 0x00, 0x00, 0x00, 0x00, 0x00, 0x00, 0x00, 0x00, 0x00, 0x00, 0x00, 0x00, 0x00, 0x00, 0x00, 0x00, 0x00, 0x00, 0x00, 0x00, 0x00, 0x00, 
0x00, 0x00, 0x00, 0x00, 0x00, 0x00, 0x00, 0x00, 0x00, 0x00, 0x00, 0x00, 0x00, 0x00, 0x00, 0x00, 0x00, 0x00, 0x00, 0x00, 0x00, 0x00, 0x00, 0x00, 0x00, 0x00, 0x00, 0x00, 0x00, 0x00, 0x00, 0x00, 
0x00, 0x00, 0x00, 0x00, 0x00, 0x00, 0x00, 0x00, 0x00, 0x00, 0x00, 0x00, 0x00, 0x00, 0x00, 0x00, 0x00, 0x00, 0x00, 0x00, 0x00, 0x00, 0x00, 0x00, 0x00, 0x00, 0x00, 0x00, 0x00, 0x00, 0x00, 0x00, 
0x00, 0x00, 0x00, 0x00, 0x00, 0x00, 0x00, 0x00, 0x00, 0x00, 0x00, 0x00, 0x00, 0x00, 0x00, 0x00, 0x00, 0x00, 0x00, 0x00, 0x00, 0x00, 0x00, 0x00, 0x00, 0x00, 0x00, 0x00, 0x00, 0x00, 0x00, 0x00, 
0x00, 0x00, 0x00, 0x00, 0x00, 0x00, 0x00, 0x00, 0x00, 0x00, 0x00, 0x00, 0x00, 0x00, 0x00, 0x00, 0x00, 0x00, 0x00, 0x00, 0x00, 0x00, 0x00, 0x00, 0x00, 0x00, 0x00, 0x00, 0x00, 0x00, 0x00, 0x00, 
0x00, 0x00, 0x00, 0x00, 0x00, 0x00, 0x00, 0x00, 0x00, 0x00, 0x00, 0x00, 0x00, 0x00, 0x00, 0x00, 0x00, 0x00, 0x00, 0x00, 0x00, 0x00, 0x00, 0x00, 0x00, 0x00, 0x00, 0x00, 0x00, 0x00, 0x00, 0x00, 
0x00, 0x00, 0x00, 0x00, 0x00, 0x00, 0x00, 0x00, 0x00, 0x00, 0x00, 0x00, 0x00, 0x00, 0x00, 0x00, 0x00, 0x00, 0x00, 0x00, 0x00, 0x00, 0x00, 0x00, 0x00, 0x00, 0x00, 0x00, 0x00, 0x00, 0x00, 0x00, 
0x00, 0x00, 0x00, 0x00, 0x00, 0x00, 0x00, 0x00, 0x00, 0x00, 0x00, 0x00, 0x00, 0x00, 0x00, 0x00, 0x00, 0x00, 0x00, 0x00, 0x00, 0x00, 0x00, 0x00, 0x00, 0x00, 0x00, 0x00, 0x00, 0x00, 0x00, 0x00, 
0x00, 0x00, 0x00, 0x00, 0x00, 0x00, 0x00, 0x00, 0x00, 0x00, 0x00, 0x00, 0x00, 0x00, 0x00, 0x00, 0x00, 0x00, 0x00, 0x00, 0x00, 0x00, 0x00, 0x00, 0x00, 0x00, 0x00, 0x00, 0x00, 0x00, 0x00, 0x00, 
0x00, 0x00, 0x00, 0x00, 0x00, 0x00, 0x00, 0x00, 0x00, 0x00, 0x00, 0x00, 0x00, 0x00, 0x00, 0x00, 0x00, 0x00, 0x00, 0x00, 0x00, 0x00, 0x00, 0x00, 0x00, 0x00, 0x00, 0x00, 0x00, 0x00, 0x00, 0x00, 
0x00, 0x00, 0x00, 0x00, 0x00, 0x00, 0x00, 0x00, 0x00, 0x00, 0x00, 0x00, 0x00, 0x00, 0x00, 0x00, 0x00, 0x00, 0x00, 0x00, 0x00, 0x00, 0x00, 0x00, 0x00, 0x00, 0x00, 0x00, 0x00, 0x00, 0x00, 0x00, 
0x00, 0x00, 0x00, 0x00, 0x00, 0x00, 0x00, 0x00, 0x00, 0x00, 0x00, 0x00, 0x00, 0x00, 0x00, 0x00, 0x00, 0x00, 0x00, 0x00, 0x00, 0x00, 0x00, 0x00, 0x00, 0x00, 0x00, 0x00, 0x00, 0x00, 0x00, 0x00, 
0x00, 0x00, 0x00, 0x00, 0x00, 0x00, 0x00, 0x00, 0x00, 0x00, 0x00, 0x00, 0x00, 0x00, 0x00, 0x00, 0x00, 0x00, 0x00, 0x00, 0x00, 0x00, 0x00, 0x00, 0x00, 0x00, 0x00, 0x00, 0x00, 0x00, 0x00, 0x00, 
0x00, 0x00, 0x00, 0x00, 0x00, 0x00, 0x00, 0x00, 0x00, 0x00, 0x00, 0x00, 0x00, 0x00, 0x00, 0x00, 0x00, 0x00, 0x00, 0x00, 0x00, 0x00, 0x00, 0x00, 0x00, 0x00, 0x00, 0x00, 0x00, 0x00, 0x00, 0x00, 
0x00, 0x00, 0x00, 0x00, 0x00, 0x00, 0x00, 0x00, 0x00, 0x00, 0x00, 0x00, 0x00, 0x00, 0x00, 0x00, 0x00, 0x00, 0x00, 0x00, 0x00, 0x00, 0x00, 0x00, 0x00, 0x00, 0x00, 0x00, 0x00, 0x00, 0x00, 0x00, 
0x00, 0x00, 0x00, 0x00, 0x00, 0x00, 0x00, 0x00, 0x00, 0x00, 0x00, 0x00, 0x00, 0x00, 0x00, 0x00, 0x00, 0x00, 0x00, 0x00, 0x00, 0x00, 0x00, 0x00, 0x00, 0x00, 0x00, 0x00, 0x00, 0x00, 0x00, 0x00, 
0x00, 0x00, 0x00, 0x00, 0x00, 0x00, 0x00, 0x00, 0x00, 0x00, 0x00, 0x00, 0x00, 0x00, 0x00, 0x00, 0x00, 0x00, 0x00, 0x00, 0x00, 0x00, 0x00, 0x00, 0x00, 0x00, 0x00, 0x00, 0x00, 0x00, 0x00, 0x00, 
0x00, 0x00, 0x00, 0x00, 0x00, 0x00, 0x00, 0x00, 0x00, 0x00, 0x00, 0x00, 0x00, 0x00, 0x00, 0x00, 0x00, 0x00, 0x00, 0x00, 0x00, 0x00, 0x00, 0x00, 0x00, 0x00, 0x00, 0x00, 0x00, 0x00, 0x00, 0x00, 
0x00, 0x00, 0x00, 0x00, 0x00, 0x00, 0x00, 0x00, 0x00, 0x00, 0x00, 0x00, 0x00, 0x00, 0x00, 0x00, 0x00, 0x00, 0x00, 0x00, 0x00, 0x00, 0x00, 0x00, 0x00, 0x00, 0x00, 0x00, 0x00, 0x00, 0x00, 0x00, 
0x00, 0x00, 0x00, 0x00, 0x00, 0x00, 0x00, 0x00, 0x00, 0x00, 0x00, 0x00, 0x00, 0x00, 0x00, 0x00, 0x00, 0x00, 0x00, 0x00, 0x00, 0x00, 0x00, 0x00, 0x00, 0x00, 0x00, 0x00, 0x00, 0x00, 0x00, 0x00, 
0x00, 0x00, 0x00, 0x00, 0x00, 0x00, 0x00, 0x00, 0x00, 0x00, 0x00, 0x00, 0x00, 0x00, 0x00, 0x00, 0x00, 0x00, 0x00, 0x00, 0x00, 0x00, 0x00, 0x00, 0x00, 0x00, 0x00, 0x00, 0x00, 0x00, 0x00, 0x00, 
0x00, 0x00, 0x00, 0x00, 0x00, 0x00, 0x00, 0x00, 0x00, 0x00, 0x00, 0x00, 0x00, 0x00, 0x00, 0x00, 0x00, 0x00, 0x00, 0x00, 0x00, 0x00, 0x00, 0x00, 0x00, 0x00, 0x00, 0x00, 0x00, 0x00, 0x00, 0x00, 
0x00, 0x00, 0x00, 0x00, 0x00, 0x00, 0x00, 0x00, 0x00, 0x00, 0x00, 0x00, 0x00, 0x00, 0x00, 0x00, 0x00, 0x00, 0x00, 0x00, 0x00, 0x00, 0x00, 0x00, 0x00, 0x00, 0x00, 0x00, 0x00, 0x00, 0x00, 0x00, 
0x00, 0x00, 0x00, 0x00, 0x00, 0x00, 0x00, 0x00, 0x00, 0x00, 0x00, 0x00, 0x00, 0x00, 0x00, 0x00, 0x00, 0x00, 0x00, 0x00, 0x00, 0x00, 0x00, 0x00, 0x00, 0x00, 0x00, 0x00, 0x00, 0x00, 0x00, 0x00, 
0x00, 0x00, 0x00, 0x00, 0x00, 0x00, 0x00, 0x00, 0x00, 0x00, 0x00, 0x00, 0x00, 0x00, 0x00, 0x00, 0x00, 0x00, 0x00, 0x00, 0x00, 0x00, 0x00, 0x00, 0x00, 0x00, 0x00, 0x00, 0x00, 0x00, 0x00, 0x00, 
0x00, 0x00, 0x00, 0x00, 0x00, 0x00, 0x00, 0x00, 0x00, 0x00, 0x00, 0x00, 0x00, 0x00, 0x00, 0x00, 0x00, 0x00, 0x00, 0x00, 0x00, 0x00, 0x00, 0x00, 0x00, 0x00, 0x00, 0x00, 0x00, 0x00, 0x00, 0x00, 
0x00, 0x00, 0x00, 0x00, 0x00, 0x00, 0x00, 0x00, 0x00, 0x00, 0x00, 0x00, 0x00, 0x00, 0x00, 0x00, 0x00, 0x00, 0x00, 0x00, 0x00, 0x00, 0x00, 0x00, 0x00, 0x00, 0x00, 0x00, 0x00, 0x00, 0x00, 0x00, 
0x00, 0x00, 0x00, 0x00, 0x00, 0x00, 0x00, 0x00, 0x00, 0x00, 0x00, 0x00, 0x00, 0x00, 0x00, 0x00, 0x00, 0x00, 0x00, 0x00, 0x00, 0x00, 0x00, 0x00, 0x00, 0x00, 0x00, 0x00, 0x00, 0x00, 0x00, 0x00, 
0x00, 0x00, 0x00, 0x00, 0x00, 0x00, 0x00, 0x00, 0x00, 0x00, 0x00, 0x00, 0x00, 0x00, 0x00, 0x00, 0x00, 0x00, 0x00, 0x00, 0x00, 0x00, 0x00, 0x00, 0x00, 0x00, 0x00, 0x00, 0x00, 0x00, 0x00, 0x00, 
0x00, 0x00, 0x00, 0x00, 0x00, 0x00, 0x00, 0x00, 0x00, 0x00, 0x00, 0x00, 0x00, 0x00, 0x00, 0x00, 0x00, 0x00, 0x00, 0x00, 0x00, 0x00, 0x00, 0x00, 0x00, 0x00, 0x00, 0x00, 0x00, 0x00, 0x00, 0x00, 
0x00, 0x00, 0x00, 0x00, 0x00, 0x00, 0x00, 0x00, 0x00, 0x00, 0x00, 0x00, 0x00, 0x00, 0x00, 0x00, 0x00, 0x00, 0x00, 0x00, 0x00, 0x00, 0x00, 0x00, 0x00, 0x00, 0x00, 0x00, 0x00, 0x00, 0x00, 0x00, 
0x00, 0x00, 0x00, 0x00, 0x00, 0x00, 0x00, 0x00, 0x00, 0x00, 0x00, 0x00, 0x00, 0x00, 0x00, 0x00, 0x00, 0x00, 0x00, 0x00, 0x00, 0x00, 0x00, 0x00, 0x00, 0x00, 0x00, 0x00, 0x00, 0x00, 0x00, 0x00, 
0x00, 0x00, 0x00, 0x00, 0x00, 0x00, 0x00, 0x00, 0x00, 0x00, 0x00, 0x00, 0x00, 0x00, 0x00, 0x00, 0x00, 0x00, 0x00, 0x00, 0x00, 0x00, 0x00, 0x00, 0x00, 0x00, 0x00, 0x00, 0x00, 0x00, 0x00, 0x00, 
0x00, 0x00, 0x00, 0x00, 0x00, 0x00, 0x00, 0x00, 0x00, 0x00, 0x00, 0x00, 0x00, 0x00, 0x00, 0x00, 0x00, 0x00, 0x00, 0x00, 0x00, 0x00, 0x00, 0x00, 0x00, 0x00, 0x00, 0x00, 0x00, 0x00, 0x00, 0x00, 
0x00, 0x00, 0x00, 0x00, 0x00, 0x00, 0x00, 0x00, 0x00, 0x00, 0x00, 0x00, 0x00, 0x00, 0x00, 0x00, 0x00, 0x00, 0x00, 0x00, 0x00, 0x00, 0x00, 0x00, 0x00, 0x00, 0x00, 0x00, 0x00, 0x00, 0x00, 0x00, 
0x00, 0x00, 0x00, 0x00, 0x00, 0x00, 0x00, 0x00, 0x00, 0x00, 0x00, 0x00, 0x00, 0x00, 0x00, 0x00, 0x00, 0x00, 0x00, 0x00, 0x00, 0x00, 0x00, 0x00, 0x00, 0x00, 0x00, 0x00, 0x00, 0x00, 0x00, 0x00, 
0x00, 0x00, 0x00, 0x00, 0x00, 0x00, 0x00, 0x00, 0x00, 0x00, 0x00, 0x00, 0x00, 0x00, 0x00, 0x00, 0x00, 0x00, 0x00, 0x00, 0x00, 0x00, 0x00, 0x00, 0x00, 0x00, 0x00, 0x00, 0x00, 0x00, 0x00, 0x00, 
0x00, 0x00, 0x00, 0x00, 0x00, 0x00, 0x00, 0x00, 0x00, 0x00, 0x00, 0x00, 0x00, 0x00, 0x00, 0x00, 0x00, 0x00, 0x00, 0x00, 0x00, 0x00, 0x00, 0x00, 0x00, 0x00, 0x00, 0x00, 0x00, 0x00, 0x00, 0x00, 
0x00, 0x00, 0x00, 0x00, 0x00, 0x00, 0x00, 0x00, 0x00, 0x00, 0x00, 0x00, 0x00, 0x00, 0x00, 0x00, 0x00, 0x00, 0x00, 0x00, 0x00, 0x00, 0x00, 0x00, 0x00, 0x00, 0x00, 0x00, 0x00, 0x00, 0x00, 0x00, 
0x00, 0x00, 0x00, 0x00, 0x00, 0x00, 0x00, 0x00, 0x00, 0x00, 0x00, 0x00, 0x00, 0x00, 0x00, 0x00, 0x00, 0x00, 0x00, 0x00, 0x00, 0x00, 0x00, 0x00, 0x00, 0x00, 0x00, 0x00, 0x00, 0x00, 0x00, 0x00, 
0x00, 0x00, 0x00, 0x00, 0x00, 0x00, 0x00, 0x00, 0x00, 0x00, 0x00, 0x00, 0x00, 0x00, 0x00, 0x00, 0x00, 0x00, 0x00, 0x00, 0x00, 0x00, 0x00, 0x00, 0x00, 0x00, 0x00, 0x00, 0x00, 0x00, 0x00, 0x00, 
0x00, 0x00, 0x00, 0x00, 0x00, 0x00, 0x00, 0x00, 0x00, 0x00, 0x00, 0x00, 0x00, 0x00, 0x00, 0x00, 0x00, 0x00, 0x00, 0x00, 0x00, 0x00, 0x00, 0x00, 0x00, 0x00, 0x00, 0x00, 0x00, 0x00, 0x00, 0x00, 
0x00, 0x00, 0x00, 0x00, 0x00, 0x00, 0x00, 0x00, 0x00, 0x00, 0x00, 0x00, 0x00, 0x00, 0x00, 0x00, 0x00, 0x00, 0x00, 0x00, 0x00, 0x00, 0x00, 0x00, 0x00, 0x00, 0x00, 0x00, 0x00, 0x00, 0x00, 0x00, 
0x00, 0x00, 0x00, 0x00, 0x00, 0x00, 0x00, 0x00, 0x00, 0x00, 0x00, 0x00, 0x00, 0x00, 0x00, 0x00, 0x00, 0x00, 0x00, 0x00, 0x00, 0x00, 0x00, 0x00, 0x00, 0x00, 0x00, 0x00, 0x00, 0x00, 0x00, 0x00, 
0x00, 0x00, 0x00, 0x00, 0x00, 0x00, 0x00, 0x00, 0x00, 0x00, 0x00, 0x00, 0x00, 0x00, 0x00, 0x00, 0x00, 0x00, 0x00, 0x00, 0x00, 0x00, 0x00, 0x00, 0x00, 0x00, 0x00, 0x00, 0x00, 0x00, 0x00, 0x00, 
0x00, 0x00, 0x00, 0x00, 0x00, 0x00, 0x00, 0x00, 0x00, 0x00, 0x00, 0x00, 0x00, 0x00, 0x00, 0x00, 0x00, 0x00, 0x00, 0x00, 0x00, 0x00, 0x00, 0x00, 0x00, 0x00, 0x00, 0x00, 0x00, 0x00, 0x00, 0x00, 
0x00, 0x00, 0x00, 0x00, 0x00, 0x00, 0x00, 0x00, 0x00, 0x00, 0x00, 0x00, 0x00, 0x00, 0x00, 0x00, 0x00, 0x00, 0x00, 0x00, 0x00, 0x00, 0x00, 0x00, 0x00, 0x00, 0x00, 0x00, 0x00, 0x00, 0x00, 0x00, 
0x00, 0x00, 0x00, 0x00, 0x00, 0x00, 0x00, 0x00, 0x00, 0x00, 0x00, 0x00, 0x00, 0x00, 0x00, 0x00, 0x00, 0x00, 0x00, 0x00, 0x00, 0x00, 0x00, 0x00, 0x00, 0x00, 0x00, 0x00, 0x00, 0x00, 0x00, 0x00, 
0x00, 0x00, 0x00, 0x00, 0x00, 0x00, 0x00, 0x00, 0x00, 0x00, 0x00, 0x00, 0x00, 0x00, 0x00, 0x00, 0x00, 0x00, 0x00, 0x00, 0x00, 0x00, 0x00, 0x00, 0x00, 0x00, 0x00, 0x00, 0x00, 0x00, 0x00, 0x00, 
0x00, 0x00, 0x00, 0x00, 0x00, 0x00, 0x00, 0x00, 0x00, 0x00, 0x00, 0x00, 0x00, 0x00, 0x00, 0x00, 0x00, 0x00, 0x00, 0x00, 0x00, 0x00, 0x00, 0x00, 0x00, 0x00, 0x00, 0x00, 0x00, 0x00, 0x00, 0x00, 
0x00, 0x00, 0x00, 0x00, 0x00, 0x00, 0x00, 0x00, 0x00, 0x00, 0x00, 0x00, 0x00, 0x00, 0x00, 0x00, 0x00, 0x00, 0x00, 0x00, 0x00, 0x00, 0x00, 0x00, 0x00, 0x00, 0x00, 0x00, 0x00, 0x00, 0x00, 0x00, 
0x00, 0x00, 0x00, 0x00, 0x00, 0x00, 0x00, 0x00, 0x00, 0x00, 0x00, 0x00, 0x00, 0x00, 0x00, 0x00, 0x00, 0x00, 0x00, 0x00, 0x00, 0x00, 0x00, 0x00, 0x00, 0x00, 0x00, 0x00, 0x00, 0x00, 0x00, 0x00, 
0x00, 0x00, 0x00, 0x00, 0x00, 0x00, 0x00, 0x00, 0x00, 0x00, 0x00, 0x00, 0x00, 0x00, 0x00, 0x00, 0x00, 0x00, 0x00, 0x00, 0x00, 0x00, 0x00, 0x00, 0x00, 0x00, 0x00, 0x00, 0x00, 0x00, 0x00, 0x00, 
0x00, 0x00, 0x00, 0x00, 0x00, 0x00, 0x00, 0x00, 0x00, 0x00, 0x00, 0x00, 0x00, 0x00, 0x00, 0x00, 0x00, 0x00, 0x00, 0x00, 0x00, 0x00, 0x00, 0x00, 0x00, 0x00, 0x00, 0x00, 0x00, 0x00, 0x00, 0x00, 
0x00, 0x00, 0x00, 0x00, 0x00, 0x00, 0x00, 0x00, 0x00, 0x00, 0x00, 0x00, 0x00, 0x00, 0x00, 0x00, 0x00, 0x00, 0x00, 0x00, 0x00, 0x00, 0x00, 0x00, 0x00, 0x00, 0x00, 0x00, 0x00, 0x00, 0x00, 0x00, 
0x00, 0x00, 0x00, 0x00, 0x00, 0x00, 0x00, 0x00, 0x00, 0x00, 0x00, 0x00, 0x00, 0x00, 0x00, 0x00, 0x00, 0x00, 0x00, 0x00, 0x00, 0x00, 0x00, 0x00, 0x00, 0x00, 0x00, 0x00, 0x00, 0x00, 0x00, 0x00, 
0x00, 0x00, 0x00, 0x00, 0x00, 0x00, 0x00, 0x00, 0x00, 0x00, 0x00, 0x00, 0x00, 0x00, 0x00, 0x00, 0x00, 0x00, 0x00, 0x00, 0x00, 0x00, 0x00, 0x00, 0x00, 0x00, 0x00, 0x00, 0x00, 0x00, 0x00, 0x00, 
0x00, 0x00, 0x00, 0x00, 0x00, 0x00, 0x00, 0x00, 0x00, 0x00, 0x00, 0x00, 0x00, 0x00, 0x00, 0x00, 0x00, 0x00, 0x00, 0x00, 0x00, 0x00, 0x00, 0x00, 0x00, 0x00, 0x00, 0x00, 0x00, 0x00, 0x00, 0x00, 
0x00, 0x00, 0x00, 0x00, 0x00, 0x00, 0x00, 0x00, 0x00, 0x00, 0x00, 0x00, 0x00, 0x00, 0x00, 0x00, 0x00, 0x00, 0x00, 0x00, 0x00, 0x00, 0x00, 0x00, 0x00, 0x00, 0x00, 0x00, 0x00, 0x00, 0x00, 0x00, 
0x00, 0x00, 0x00, 0x00, 0x00, 0x00, 0x00, 0x00, 0x00, 0x00, 0x00, 0x00, 0x00, 0x00, 0x00, 0x00, 0x00, 0x00, 0x00, 0x00, 0x00, 0x00, 0x00, 0x00, 0x00, 0x00, 0x00, 0x00, 0x00, 0x00, 0x00, 0x00, 
0x00, 0x00, 0x00, 0x00, 0x00, 0x00, 0x00, 0x00, 0x00, 0x00, 0x00, 0x00, 0x00, 0x00, 0x00, 0x00, 0x00, 0x00, 0x00, 0x00, 0x00, 0x00, 0x00, 0x00, 0x00, 0x00, 0x00, 0x00, 0x00, 0x00, 0x00, 0x00, 
0x00, 0x00, 0x00, 0x00, 0x00, 0x00, 0x00, 0x00, 0x00, 0x00, 0x00, 0x00, 0x00, 0x00, 0x00, 0x00, 0x00, 0x00, 0x00, 0x00, 0x00, 0x00, 0x00, 0x00, 0x00, 0x00, 0x00, 0x00, 0x00, 0x00, 0x00, 0x00, 
0x00, 0x00, 0x00, 0x00, 0x00, 0x00, 0x00, 0x00, 0x00, 0x00, 0x00, 0x00, 0x00, 0x00, 0x00, 0x00, 0x00, 0x00, 0x00, 0x00, 0x00, 0x00, 0x00, 0x00, 0x00, 0x00, 0x00, 0x00, 0x00, 0x00, 0x00, 0x00, 
0x00, 0x00, 0x00, 0x00, 0x00, 0x00, 0x00, 0x00, 0x00, 0x00, 0x00, 0x00, 0x00, 0x00, 0x00, 0x00, 0x00, 0x00, 0x00, 0x00, 0x00, 0x00, 0x00, 0x00, 0x00, 0x00, 0x00, 0x00, 0x00, 0x00, 0x00, 0x00, 
0x00, 0x00, 0x00, 0x00, 0x00, 0x00, 0x00, 0x00, 0x00, 0x00, 0x00, 0x00, 0x00, 0x00, 0x00, 0x00, 0x00, 0x00, 0x00, 0x00, 0x00, 0x00, 0x00, 0x00, 0x00, 0x00, 0x00, 0x00, 0x00, 0x00, 0x00, 0x00, 
0x00, 0x00, 0x00, 0x00, 0x00, 0x00, 0x00, 0x00, 0x00, 0x00, 0x00, 0x00, 0x00, 0x00, 0x00, 0x00, 0x00, 0x00, 0x00, 0x00, 0x00, 0x00, 0x00, 0x00, 0x00, 0x00, 0x00, 0x00, 0x00, 0x00, 0x00, 0x00, 
0x00, 0x00, 0x00, 0x00, 0x00, 0x00, 0x00, 0x00, 0x00, 0x00, 0x00, 0x00, 0x00, 0x00, 0x00, 0x00, 0x00, 0x00, 0x00, 0x00, 0x00, 0x00, 0x00, 0x00, 0x00, 0x00, 0x00, 0x00, 0x00, 0x00, 0x00, 0x00, 
0x00, 0x00, 0x00, 0x00, 0x00, 0x00, 0x00, 0x00, 0x00, 0x00, 0x00, 0x00, 0x00, 0x00, 0x00, 0x00, 0x00, 0x00, 0x00, 0x00, 0x00, 0x00, 0x00, 0x00, 0x00, 0x00, 0x00, 0x00, 0x00, 0x00, 0x00, 0x00, 
0x00, 0x00, 0x00, 0x00, 0x00, 0x00, 0x00, 0x00, 0x00, 0x00, 0x00, 0x00, 0x00, 0x00, 0x00, 0x00, 0x00, 0x00, 0x00, 0x00, 0x00, 0x00, 0x00, 0x00, 0x00, 0x00, 0x00, 0x00, 0x00, 0x00, 0x00, 0x00, 
0x00, 0x00, 0x00, 0x00, 0x00, 0x00, 0x00, 0x00, 0x00, 0x00, 0x00, 0x00, 0x00, 0x00, 0x00, 0x00, 0x00, 0x00, 0x00, 0x00, 0x00, 0x00, 0x00, 0x00, 0x00, 0x00, 0x00, 0x00, 0x00, 0x00, 0x00, 0x00, 
0x00, 0x00, 0x00, 0x00, 0x00, 0x00, 0x00, 0x00, 0x00, 0x00, 0x00, 0x00, 0x00, 0x00, 0x00, 0x00, 0x00, 0x00, 0x00, 0x00, 0x00, 0x00, 0x00, 0x00, 0x00, 0x00, 0x00, 0x00, 0x00, 0x00, 0x00, 0x00, 
0x00, 0x00, 0x00, 0x00, 0x00, 0x00, 0x00, 0x00, 0x00, 0x00, 0x00, 0x00, 0x00, 0x00, 0x00, 0x00, 0x00, 0x00, 0x00, 0x00, 0x00, 0x00, 0x00, 0x00, 0x00, 0x00, 0x00, 0x00, 0x00, 0x00, 0x00, 0x00, 
0x00, 0x00, 0x00, 0x00, 0x00, 0x00, 0x00, 0x00, 0x00, 0x00, 0x00, 0x00, 0x00, 0x00, 0x00, 0x00, 0x00, 0x00, 0x00, 0x00, 0x00, 0x00, 0x00, 0x00, 0x00, 0x00, 0x00, 0x00, 0x00, 0x00, 0x00, 0x00, 
0x00, 0x00, 0x00, 0x00, 0x00, 0x00, 0x00, 0x00, 0x00, 0x00, 0x00, 0x00, 0x00, 0x00, 0x00, 0x00, 0x00, 0x00, 0x00, 0x00, 0x00, 0x00, 0x00, 0x00, 0x00, 0x00, 0x00, 0x00, 0x00, 0x00, 0x00, 0x00, 
0x00, 0x00, 0x00, 0x00, 0x00, 0x00, 0x00, 0x00, 0x00, 0x00, 0x00, 0x00, 0x00, 0x00, 0x00, 0x00, 0x00, 0x00, 0x00, 0x00, 0x00, 0x00, 0x00, 0x00, 0x00, 0x00, 0x00, 0x00, 0x00, 0x00, 0x00, 0x00, 
0x00, 0x00, 0x00, 0x00, 0x00, 0x00, 0x00, 0x00, 0x00, 0x00, 0x00, 0x00, 0x00, 0x00, 0x00, 0x00, 0x00, 0x00, 0x00, 0x00, 0x00, 0x00, 0x00, 0x00, 0x00, 0x00, 0x00, 0x00, 0x00, 0x00, 0x00, 0x00, 
0x00, 0x00, 0x00, 0x00, 0x00, 0x00, 0x00, 0x00, 0x00, 0x00, 0x00, 0x00, 0x00, 0x00, 0x00, 0x00, 0x00, 0x00, 0x00, 0x00, 0x00, 0x00, 0x00, 0x00, 0x00, 0x00, 0x00, 0x00, 0x00, 0x00, 0x00, 0x00, 
0x00, 0x00, 0x00, 0x00, 0x00, 0x00, 0x00, 0x00, 0x00, 0x00, 0x00, 0x00, 0x00, 0x00, 0x00, 0x00, 0x00, 0x00, 0x00, 0x00, 0x00, 0x00, 0x00, 0x00, 0x00, 0x00, 0x00, 0x00, 0x00, 0x00, 0x00, 0x00, 
0x00, 0x00, 0x00, 0x00, 0x00, 0x00, 0x00, 0x00, 0x00, 0x00, 0x00, 0x00, 0x00, 0x00, 0x00, 0x00, 0x00, 0x00, 0x00, 0x00, 0x00, 0x00, 0x00, 0x00, 0x00, 0x00, 0x00, 0x00, 0x00, 0x00, 0x00, 0x00, 
0x00, 0x00, 0x00, 0x00, 0x00, 0x00, 0x00, 0x00, 0x00, 0x00, 0x00, 0x00, 0x00, 0x00, 0x00, 0x00, 0x00, 0x00, 0x00, 0x00, 0x00, 0x00, 0x00, 0x00, 0x00, 0x00, 0x00, 0x00, 0x00, 0x00, 0x00, 0x00, 
0x00, 0x00, 0x00, 0x00, 0x00, 0x00, 0x00, 0x00, 0x00, 0x00, 0x00, 0x00, 0x00, 0x00, 0x00, 0x00, 0x00, 0x00, 0x00, 0x00, 0x00, 0x00, 0x00, 0x00, 0x00, 0x00, 0x00, 0x00, 0x00, 0x00, 0x00, 0x00, 
0x00, 0x00, 0x00, 0x00, 0x00, 0x00, 0x00, 0x00, 0x00, 0x00, 0x00, 0x00, 0x00, 0x00, 0x00, 0x00, 0x00, 0x00, 0x00, 0x00, 0x00, 0x00, 0x00, 0x00, 0x00, 0x00, 0x00, 0x00, 0x00, 0x00, 0x00, 0x00, 
0x00, 0x00, 0x00, 0x00, 0x00, 0x00, 0x00, 0x00, 0x00, 0x00, 0x00, 0x00, 0x00, 0x00, 0x00, 0x00, 0x00, 0x00, 0x00, 0x00, 0x00, 0x00, 0x00, 0x00, 0x00, 0x00, 0x00, 0x00, 0x00, 0x00, 0x00, 0x00, 
0x00, 0x00, 0x00, 0x00, 0x00, 0x00, 0x00, 0x00, 0x00, 0x00, 0x00, 0x00, 0x00, 0x00, 0x00, 0x00, 0x00, 0x00, 0x00, 0x00, 0x00, 0x00, 0x00, 0x00, 0x00, 0x00, 0x00, 0x00, 0x00, 0x00, 0x00, 0x00, 
0x69, 0x6e, 0x70, 0x75, 0x74, 0x73, 0x00, 0x00, 0x00, 0x00, 0x00, 0x00, 0x00, 0x00, 0x00, 0x00, 0x20, 0x00, 0x00, 0x00, 0x00, 0x00, 0x00, 0x00, 0x00, 0x00, 0x00, 0x00, 0x00, 0x00, 0x00, 0x00, 
0x01, 0x00, 0x00, 0x00, 0x01, 0x00, 0x00, 0x00, 0x01, 0x00, 0x00, 0x00, 0x01, 0x00, 0x00, 0x00, 0x08, 0x00, 0x00, 0x00, 0x01, 0x00, 0x00, 0x00, 0x30, 0x0e, 0x00, 0x00, 0x01, 0x00, 0x00, 0x00, 
0x6f, 0x75, 0x74, 0x70, 0x75, 0x74, 0x73, 0x00, 0x00, 0x00, 0x00, 0x00, 0x00, 0x00, 0x00, 0x00, 0x20, 0x00, 0x00, 0x00, 0x00, 0x00, 0x00, 0x00, 0x00, 0x00, 0x00, 0x00, 0x00, 0x00, 0x00, 0x00, 
0x01, 0x00, 0x00, 0x00, 0x01, 0x00, 0x00, 0x00, 0x01, 0x00, 0x00, 0x00, 0x01, 0x00, 0x00, 0x00, 0x04, 0x00, 0x00, 0x00, 0x01, 0x00, 0x00, 0x00, 0x00, 0x00, 0x00, 0x00, 0x01, 0x00, 0x00, 0x00, 
0x76, 0x65, 0x6c, 0x61, 0x5f, 0x65, 0x6e, 0x64, 0x5f, 0x73, 0x74, 0x72, 0x65, 0x61, 0x6d, 0x00, 0x00, 0x00, 0x00, 0x00, 0x00, 0x00, 0x00, 0x00, 0x00, 0x00, 0x00, 0x00, 0x00, 0x00, 0x00, 0x00, 
0x00, 0x00, 0x00, 0x00, 0x01, 0x00, 0x00, 0x00, 0x1c, 0x00, 0x00, 0x00, 0x00, 0x00, 0x16, 0x00, 0x28, 0x00, 0x04, 0x00, 0x08, 0x00, 0x0c, 0x00, 0x10, 0x00, 0x14, 0x00, 0x18, 0x00, 0x1c, 0x00, 
0x20, 0x00, 0x24, 0x00, 0x16, 0x00, 0x00, 0x00, 0x8c, 0x07, 0x00, 0x00, 0x38, 0x06, 0x00, 0x00, 0x9c, 0x03, 0x00, 0x00, 0x90, 0x03, 0x00, 0x00, 0x84, 0x03, 0x00, 0x00, 0xa4, 0x02, 0x00, 0x00, 
0x0c, 0x02, 0x00, 0x00, 0x1c, 0x00, 0x00, 0x00, 0x04, 0x00, 0x00, 0x00, 0x02, 0x00, 0x00, 0x00, 0x00, 0x00, 0x00, 0x00, 0x00, 0x00, 0x00, 0x00, 0x30, 0x00, 0x00, 0x00, 0x00, 0x00, 0x00, 0x00, 
0x01, 0x00, 0x00, 0x00, 0x04, 0x00, 0x00, 0x00, 0x7e, 0xfd, 0xff, 0xff, 0xd0, 0x01, 0x00, 0x00, 0xc8, 0x01, 0x00, 0x00, 0x04, 0x00, 0x00, 0x00, 0x05, 0x00, 0x00, 0x00, 0x88, 0x01, 0x00, 0x00, 
0x5c, 0x01, 0x00, 0x00, 0x60, 0x00, 0x00, 0x00, 0x2c, 0x00, 0x00, 0x00, 0x04, 0x00, 0x00, 0x00, 0x34, 0xfa, 0xff, 0xff, 0x10, 0x00, 0x00, 0x00, 0x04, 0x00, 0x00, 0x00, 0x04, 0x00, 0x00, 0x00, 
0x54, 0x72, 0x75, 0x65, 0x0b, 0x00, 0x00, 0x00, 0x71, 0x75, 0x61, 0x6e, 0x74, 0x69, 0x7a, 0x65, 0x5f, 0x69, 0x6f, 0x00, 0x58, 0xfa, 0xff, 0xff, 0x10, 0x00, 0x00, 0x00, 0x04, 0x00, 0x00, 0x00, 
0x04, 0x00, 0x00, 0x00, 0x6e, 0x68, 0x77, 0x63, 0x15, 0x00, 0x00, 0x00, 0x70, 0x65, 0x72, 0x6d, 0x75, 0x74, 0x65, 0x5f, 0x6d, 0x65, 0x6d, 0x6f, 0x72, 0x79, 0x5f, 0x66, 0x6f, 0x72, 0x6d, 0x61, 
0x74, 0x00, 0x00, 0x00, 0x88, 0xfa, 0xff, 0xff, 0xe0, 0x00, 0x00, 0x00, 0x04, 0x00, 0x00, 0x00, 0xd3, 0x00, 0x00, 0x00, 0x2d, 0x2d, 0x61, 0x63, 0x63, 0x65, 0x6c, 0x65, 0x72, 0x61, 0x74, 0x6f, 
0x72, 0x2d, 0x63, 0x6f, 0x6e, 0x66, 0x69, 0x67, 0x3d, 0x65, 0x74, 0x68, 0x6f, 0x73, 0x2d, 0x75, 0x35, 0x35, 0x2d, 0x31, 0x32, 0x38, 0x20, 0x2d, 0x2d, 0x63, 0x6f, 0x6e, 0x66, 0x69, 0x67, 0x3d, 
0x41, 0x72, 0x6d, 0x2f, 0x76, 0x65, 0x6c, 0x61, 0x2e, 0x69, 0x6e, 0x69, 0x20, 0x2d, 0x2d, 0x73, 0x79, 0x73, 0x74, 0x65, 0x6d, 0x2d, 0x63, 0x6f, 0x6e, 0x66, 0x69, 0x67, 0x3d, 0x45, 0x74, 0x68, 
0x6f, 0x73, 0x5f, 0x55, 0x35, 0x35, 0x5f, 0x48, 0x69, 0x67, 0x68, 0x5f, 0x45, 0x6e, 0x64, 0x5f, 0x45, 0x6d, 0x62, 0x65, 0x64, 0x64, 0x65, 0x64, 0x20, 0x2d, 0x2d, 0x6d, 0x65, 0x6d, 0x6f, 0x72, 
0x79, 0x2d, 0x6d, 0x6f, 0x64, 0x65, 0x3d, 0x53, 0x68, 0x61, 0x72, 0x65, 0x64, 0x5f, 0x53, 0x72, 0x61, 0x6d, 0x20, 0x2d, 0x2d, 0x64, 0x65, 0x62, 0x75, 0x67, 0x2d, 0x66, 0x6f, 0x72, 0x63, 0x65, 
0x2d, 0x72, 0x65, 0x67, 0x6f, 0x72, 0x20, 0x2d, 0x2d, 0x6f, 0x75, 0x74, 0x70, 0x75, 0x74, 0x2d, 0x66, 0x6f, 0x72, 0x6d, 0x61, 0x74, 0x3d, 0x72, 0x61, 0x77, 0x20, 0x2d, 0x2d, 0x76, 0x65, 0x72, 
0x62, 0x6f, 0x73, 0x65, 0x2d, 0x6f, 0x70, 0x65, 0x72, 0x61, 0x74, 0x6f, 0x72, 0x73, 0x20, 0x2d, 0x2d, 0x76, 0x65, 0x72, 0x62, 0x6f, 0x73, 0x65, 0x2d, 0x63, 0x79, 0x63, 0x6c, 0x65, 0x2d, 0x65, 
0x73, 0x74, 0x69, 0x6d, 0x61, 0x74, 0x65, 0x00, 0x0d, 0x00, 0x00, 0x00, 0x63, 0x6f, 0x6d, 0x70, 0x69, 0x6c, 0x65, 0x5f, 0x66, 0x6c, 0x61, 0x67, 0x73, 0x00, 0x00, 0x00, 0x80, 0xfb, 0xff, 0xff, 
0x10, 0x00, 0x00, 0x00, 0x04, 0x00, 0x00, 0x00, 0x04, 0x00, 0x00, 0x00, 0x76, 0x65, 0x6c, 0x61, 0x0d, 0x00, 0x00, 0x00, 0x6f, 0x75, 0x74, 0x70, 0x75, 0x74, 0x5f, 0x66, 0x6f, 0x72, 0x6d, 0x61, 
0x74, 0x00, 0x00, 0x00, 0xa8, 0xfb, 0xff, 0xff, 0x1c, 0x00, 0x00, 0x00, 0x04, 0x00, 0x00, 0x00, 0x10, 0x00, 0x00, 0x00, 0x54, 0x4f, 0x53, 0x41, 0x2d, 0x30, 0x2e, 0x38, 0x30, 0x2b, 0x42, 0x49, 
0x2b, 0x75, 0x35, 0x35, 0x0c, 0x00, 0x00, 0x00, 0x74, 0x6f, 0x73, 0x61, 0x5f, 0x76, 0x65, 0x72, 0x73, 0x69, 0x6f, 0x6e, 0x00, 0x00, 0x00, 0x00, 0x20, 0xfe, 0xff, 0xff, 0x0a, 0x00, 0x00, 0x00, 
0x41, 0x72, 0x6d, 0x42, 0x61, 0x63, 0x6b, 0x65, 0x6e, 0x64, 0x00, 0x00, 0x02, 0x00, 0x00, 0x00, 0x4c, 0x00, 0x00, 0x00, 0x04, 0x00, 0x00, 0x00, 0xfc, 0xfb, 0xff, 0xff, 0x10, 0x00, 0x00, 0x00, 
0x04, 0x00, 0x00, 0x00, 0x03, 0x00, 0x00, 0x00, 0x6f, 0x75, 0x74, 0x00, 0x2b, 0x00, 0x00, 0x00, 0x71, 0x75, 0x61, 0x6e, 0x74, 0x69, 0x7a, 0x65, 0x64, 0x5f, 0x64, 0x65, 0x63, 0x6f, 0x6d, 0x70, 
0x6f, 0x73, 0x65, 0x64, 0x3a, 0x3a, 0x64, 0x65, 0x71, 0x75, 0x61, 0x6e, 0x74, 0x69, 0x7a, 0x65, 0x5f, 0x70, 0x65, 0x72, 0x5f, 0x74, 0x65, 0x6e, 0x73, 0x6f, 0x72, 0x00, 0x40, 0xfc, 0xff, 0xff, 
0x10, 0x00, 0x00, 0x00, 0x04, 0x00, 0x00, 0x00, 0x03, 0x00, 0x00, 0x00, 0x6f, 0x75, 0x74, 0x00, 0x29, 0x00, 0x00, 0x00, 0x71, 0x75, 0x61, 0x6e, 0x74, 0x69, 0x7a, 0x65, 0x64, 0x5f, 0x64, 0x65, 
0x63, 0x6f, 0x6d, 0x70, 0x6f, 0x73, 0x65, 0x64, 0x3a, 0x3a, 0x71, 0x75, 0x61, 0x6e, 0x74, 0x69, 0x7a, 0x65, 0x5f, 0x70, 0x65, 0x72, 0x5f, 0x74, 0x65, 0x6e, 0x73, 0x6f, 0x72, 0x00, 0x00, 0x00, 
0x01, 0x00, 0x00, 0x00, 0x10, 0x00, 0x00, 0x00, 0x00, 0x00, 0x0a, 0x00, 0x10, 0x00, 0x04, 0x00, 0x08, 0x00, 0x0c, 0x00, 0x0a, 0x00, 0x00, 0x00, 0xc0, 0x00, 0x00, 0x00, 0xb8, 0x00, 0x00, 0x00, 
0x04, 0x00, 0x00, 0x00, 0x03, 0x00, 0x00, 0x00, 0x6c, 0x00, 0x00, 0x00, 0x48, 0x00, 0x00, 0x00, 0x04, 0x00, 0x00, 0x00, 0xac, 0xfd, 0xff, 0xff, 0x00, 0x00, 0x00, 0x01, 0x04, 0x00, 0x00, 0x00, 
0xc4, 0xfc, 0xff, 0xff, 0x01, 0x00, 0x00, 0x00, 0x04, 0x00, 0x00, 0x00, 0x09, 0x00, 0x00, 0x00, 0x07, 0x00, 0x00, 0x00, 0x09, 0x00, 0x00, 0x00, 0x0a, 0x00, 0x00, 0x00, 0x0b, 0x00, 0x00, 0x00, 
0x0c, 0x00, 0x00, 0x00, 0x0d, 0x00, 0x00, 0x00, 0x0e, 0x00, 0x00, 0x00, 0x08, 0x00, 0x00, 0x00, 0x08, 0x00, 0x00, 0x00, 0xec, 0xfd, 0xff, 0xff, 0x00, 0x00, 0x00, 0x02, 0x04, 0x00, 0x00, 0x00, 
0xe0, 0xff, 0xff, 0xff, 0x04, 0x00, 0x00, 0x00, 0x02, 0x00, 0x00, 0x00, 0x01, 0x00, 0x00, 0x00, 0x07, 0x00, 0x00, 0x00, 0x0c, 0xfe, 0xff, 0xff, 0x00, 0x00, 0x00, 0x01, 0x0c, 0x00, 0x00, 0x00, 
0x08, 0x00, 0x08, 0x00, 0x00, 0x00, 0x04, 0x00, 0x08, 0x00, 0x00, 0x00, 0x04, 0x00, 0x00, 0x00, 0x08, 0x00, 0x00, 0x00, 0x00, 0x00, 0x00, 0x00, 0x02, 0x00, 0x00, 0x00, 0x03, 0x00, 0x00, 0x00, 
0x04, 0x00, 0x00, 0x00, 0x05, 0x00, 0x00, 0x00, 0x06, 0x00, 0x00, 0x00, 0x01, 0x00, 0x00, 0x00, 0x01, 0x00, 0x00, 0x00, 0x00, 0x00, 0x00, 0x00, 0x00, 0x00, 0x00, 0x00, 0x01, 0x00, 0x00, 0x00, 
0x08, 0x00, 0x00, 0x00, 0x01, 0x00, 0x00, 0x00, 0x00, 0x00, 0x00, 0x00, 0x0f, 0x00, 0x00, 0x00, 0x34, 0x02, 0x00, 0x00, 0xd4, 0x01, 0x00, 0x00, 0xb0, 0x01, 0x00, 0x00, 0x94, 0x01, 0x00, 0x00, 
0x70, 0x01, 0x00, 0x00, 0x54, 0x01, 0x00, 0x00, 0x38, 0x01, 0x00, 0x00, 0xf8, 0x00, 0x00, 0x00, 0xb4, 0x00, 0x00, 0x00, 0x8c, 0x00, 0x00, 0x00, 0x70, 0x00, 0x00, 0x00, 0x54, 0x00, 0x00, 0x00, 
0x38, 0x00, 0x00, 0x00, 0x1c, 0x00, 0x00, 0x00, 0x04, 0x00, 0x00, 0x00, 0xa4, 0xfe, 0xff, 0xff, 0x00, 0x00, 0x00, 0x01, 0x08, 0x00, 0x00, 0x00, 0x04, 0x00, 0x04, 0x00, 0x04, 0x00, 0x00, 0x00, 
0xb8, 0xfe, 0xff, 0xff, 0x00, 0x00, 0x00, 0x02, 0x04, 0x00, 0x00, 0x00, 0x96, 0xfe, 0xff, 0xff, 0x01, 0x00, 0x00, 0x00, 0x00, 0x00, 0x00, 0x00, 0xd0, 0xfe, 0xff, 0xff, 0x00, 0x00, 0x00, 0x02, 
0x04, 0x00, 0x00, 0x00, 0xae, 0xfe, 0xff, 0xff, 0x7f, 0x00, 0x00, 0x00, 0x00, 0x00, 0x00, 0x00, 0xe8, 0xfe, 0xff, 0xff, 0x00, 0x00, 0x00, 0x02, 0x04, 0x00, 0x00, 0x00, 0xc6, 0xfe, 0xff, 0xff, 
0x80, 0xff, 0xff, 0xff, 0xff, 0xff, 0xff, 0xff, 0x00, 0xff, 0xff, 0xff, 0x00, 0x00, 0x00, 0x02, 0x04, 0x00, 0x00, 0x00, 0xde, 0xfe, 0xff, 0xff, 0xd6, 0xff, 0xff, 0xff, 0xff, 0xff, 0xff, 0xff, 
0x84, 0xfe, 0xff, 0xff, 0x00, 0x00, 0x00, 0x04, 0x0c, 0x00, 0x00, 0x00, 0x00, 0x00, 0x06, 0x00, 0x10, 0x00, 0x04, 0x00, 0x06, 0x00, 0x00, 0x00, 0x00, 0x00, 0x00, 0x80, 0xa1, 0x19, 0xa8, 0x3f, 
0x00, 0x00, 0x00, 0x00, 0x3c, 0xff, 0xff, 0xff, 0x00, 0x00, 0x00, 0x05, 0x04, 0x00, 0x00, 0x00, 0xfa, 0xfe, 0xff, 0xff, 0x00, 0x00, 0x00, 0x06, 0x20, 0x00, 0x00, 0x00, 0x14, 0x00, 0x00, 0x00, 
0x04, 0x00, 0x00, 0x00, 0x68, 0xfe, 0xff, 0xff, 0x01, 0x00, 0x00, 0x00, 0x20, 0x00, 0x00, 0x00, 0x02, 0x00, 0x00, 0x00, 0x00, 0x01, 0x00, 0x00, 0x02, 0x00, 0x00, 0x00, 0x01, 0x00, 0x00, 0x00, 
0x04, 0x00, 0x00, 0x00, 0x7c, 0xff, 0xff, 0xff, 0x00, 0x00, 0x00, 0x05, 0x04, 0x00, 0x00, 0x00, 0x3a, 0xff, 0xff, 0xff, 0x00, 0x00, 0x00, 0x01, 0x1c, 0x00, 0x00, 0x00, 0x10, 0x00, 0x00, 0x00, 
0x04, 0x00, 0x00, 0x00, 0xca, 0xfe, 0xff, 0xff, 0x01, 0x00, 0x00, 0x00, 0x02, 0x00, 0x00, 0x00, 0x00, 0x01, 0x00, 0x00, 0x02, 0x00, 0x00, 0x00, 0x01, 0x00, 0x00, 0x00, 0x04, 0x00, 0x00, 0x00, 
0xb8, 0xff, 0xff, 0xff, 0x00, 0x00, 0x00, 0x02, 0x04, 0x00, 0x00, 0x00, 0x96, 0xff, 0xff, 0xff, 0x01, 0x00, 0x00, 0x00, 0x00, 0x00, 0x00, 0x00, 0xd0, 0xff, 0xff, 0xff, 0x00, 0x00, 0x00, 0x02, 
0x04, 0x00, 0x00, 0x00, 0xae, 0xff, 0xff, 0xff, 0x7f, 0x00, 0x00, 0x00, 0x00, 0x00, 0x00, 0x00, 0xe8, 0xff, 0xff, 0xff, 0x00, 0x00, 0x00, 0x02, 0x04, 0x00, 0x00, 0x00, 0xc6, 0xff, 0xff, 0xff, 
0x80, 0xff, 0xff, 0xff, 0xff, 0xff, 0xff, 0xff, 0x08, 0x00, 0x0c, 0x00, 0x07, 0x00, 0x08, 0x00, 0x08, 0x00, 0x00, 0x00, 0x00, 0x00, 0x00, 0x02, 0x04, 0x00, 0x00, 0x00, 0xe6, 0xff, 0xff, 0xff, 
0x11, 0x00, 0x00, 0x00, 0x00, 0x00, 0x00, 0x00, 0x8c, 0xff, 0xff, 0xff, 0x00, 0x00, 0x00, 0x04, 0x0c, 0x00, 0x00, 0x00, 0x00, 0x00, 0x06, 0x00, 0x0c, 0x00, 0x04, 0x00, 0x06, 0x00, 0x00, 0x00, 
0x00, 0x00, 0x00, 0x40, 0x1f, 0x33, 0x85, 0x3f, 0xac, 0xff, 0xff, 0xff, 0x00, 0x00, 0x00, 0x05, 0x18, 0x00, 0x00, 0x00, 0x00, 0x00, 0x12, 0x00, 0x14, 0x00, 0x07, 0x00, 0x00, 0x00, 0x08, 0x00, 
0x0c, 0x00, 0x00, 0x00, 0x00, 0x00, 0x10, 0x00, 0x12, 0x00, 0x00, 0x00, 0x00, 0x00, 0x00, 0x01, 0x20, 0x00, 0x00, 0x00, 0x14, 0x00, 0x00, 0x00, 0x04, 0x00, 0x00, 0x00, 0x80, 0xff, 0xff, 0xff, 
0x01, 0x00, 0x00, 0x00, 0x20, 0x00, 0x00, 0x00, 0x02, 0x00, 0x00, 0x00, 0x00, 0x01, 0x00, 0x00, 0x02, 0x00, 0x00, 0x00, 0x01, 0x00, 0x00, 0x00, 0x08, 0x00, 0x00, 0x00, 0x08, 0x00, 0x0e, 0x00, 
0x07, 0x00, 0x08, 0x00, 0x08, 0x00, 0x00, 0x00, 0x00, 0x00, 0x00, 0x05, 0x18, 0x00, 0x00, 0x00, 0x00, 0x00, 0x12, 0x00, 0x16, 0x00, 0x07, 0x00, 0x00, 0x00, 0x08, 0x00, 0x0c, 0x00, 0x00, 0x00, 
0x00, 0x00, 0x10, 0x00, 0x12, 0x00, 0x00, 0x00, 0x00, 0x00, 0x00, 0x06, 0x24, 0x00, 0x00, 0x00, 0x18, 0x00, 0x00, 0x00, 0x0c, 0x00, 0x00, 0x00, 0x00, 0x00, 0x06, 0x00, 0x08, 0x00, 0x04, 0x00, 
0x06, 0x00, 0x00, 0x00, 0x01, 0x00, 0x00, 0x00, 0x02, 0x00, 0x00, 0x00, 0x00, 0x01, 0x00, 0x00, 0x02, 0x00, 0x00, 0x00, 0x01, 0x00, 0x00, 0x00, 0x08, 0x00, 0x00, 0x00, 0x08, 0x00, 0x0c, 0x00, 
0x04, 0x00, 0x08, 0x00, 0x08, 0x00, 0x00, 0x00, 0x48, 0x00, 0x00, 0x00, 0x04, 0x00, 0x00, 0x00, 0x39, 0x00, 0x00, 0x00, 0x5b, 0x31, 0x2c, 0x20, 0x7b, 0x22, 0x74, 0x79, 0x70, 0x65, 0x22, 0x3a, 
0x20, 0x6e, 0x75, 0x6c, 0x6c, 0x2c, 0x20, 0x22, 0x63, 0x6f, 0x6e, 0x74, 0x65, 0x78, 0x74, 0x22, 0x3a, 0x20, 0x6e, 0x75, 0x6c, 0x6c, 0x2c, 0x20, 0x22, 0x63, 0x68, 0x69, 0x6c, 0x64, 0x72, 0x65, 
0x6e, 0x5f, 0x73, 0x70, 0x65, 0x63, 0x22, 0x3a, 0x20, 0x5b, 0x5d, 0x7d, 0x5d, 0x00, 0x00, 0x00, 0xfe, 0x00, 0x00, 0x00, 0x5b, 0x31, 0x2c, 0x20, 0x7b, 0x22, 0x74, 0x79, 0x70, 0x65, 0x22, 0x3a, 
0x20, 0x22, 0x62, 0x75, 0x69, 0x6c, 0x74, 0x69, 0x6e, 0x73, 0x2e, 0x74, 0x75, 0x70, 0x6c, 0x65, 0x22, 0x2c, 0x20, 0x22, 0x63, 0x6f, 0x6e, 0x74, 0x65, 0x78, 0x74, 0x22, 0x3a, 0x20, 0x22, 0x6e, 
0x75, 0x6c, 0x6c, 0x22, 0x2c, 0x20, 0x22, 0x63, 0x68, 0x69, 0x6c, 0x64, 0x72, 0x65, 0x6e, 0x5f, 0x73, 0x70, 0x65, 0x63, 0x22, 0x3a, 0x20, 0x5b, 0x7b, 0x22, 0x74, 0x79, 0x70, 0x65, 0x22, 0x3a, 
0x20, 0x22, 0x62, 0x75, 0x69, 0x6c, 0x74, 0x69, 0x6e, 0x73, 0x2e, 0x74, 0x75, 0x70, 0x6c, 0x65, 0x22, 0x2c, 0x20, 0x22, 0x63, 0x6f, 0x6e, 0x74, 0x65, 0x78, 0x74, 0x22, 0x3a, 0x20, 0x22, 0x6e, 
0x75, 0x6c, 0x6c, 0x22, 0x2c, 0x20, 0x22, 0x63, 0x68, 0x69, 0x6c, 0x64, 0x72, 0x65, 0x6e, 0x5f, 0x73, 0x70, 0x65, 0x63, 0x22, 0x3a, 0x20, 0x5b, 0x7b, 0x22, 0x74, 0x79, 0x70, 0x65, 0x22, 0x3a, 
0x20, 0x6e, 0x75, 0x6c, 0x6c, 0x2c, 0x20, 0x22, 0x63, 0x6f, 0x6e, 0x74, 0x65, 0x78, 0x74, 0x22, 0x3a, 0x20, 0x6e, 0x75, 0x6c, 0x6c, 0x2c, 0x20, 0x22, 0x63, 0x68, 0x69, 0x6c, 0x64, 0x72, 0x65, 
0x6e, 0x5f, 0x73, 0x70, 0x65, 0x63, 0x22, 0x3a, 0x20, 0x5b, 0x5d, 0x7d, 0x5d, 0x7d, 0x2c, 0x20, 0x7b, 0x22, 0x74, 0x79, 0x70, 0x65, 0x22, 0x3a, 0x20, 0x22, 0x62, 0x75, 0x69, 0x6c, 0x74, 0x69, 
0x6e, 0x73, 0x2e, 0x64, 0x69, 0x63, 0x74, 0x22, 0x2c, 0x20, 0x22, 0x63, 0x6f, 0x6e, 0x74, 0x65, 0x78, 0x74, 0x22, 0x3a, 0x20, 0x22, 0x5b, 0x5d, 0x22, 0x2c, 0x20, 0x22, 0x63, 0x68, 0x69, 0x6c, 
0x64, 0x72, 0x65, 0x6e, 0x5f, 0x73, 0x70, 0x65, 0x63, 0x22, 0x3a, 0x20, 0x5b, 0x5d, 0x7d, 0x5d, 0x7d, 0x5d, 0x00, 0x00, 0x07, 0x00, 0x00, 0x00, 0x66, 0x6f, 0x72, 0x77, 0x61, 0x72, 0x64, 0x00, };
